<pad>	0
<unk>	0
<s>	0
</s>	0
▁t	-0
he	-1
▁a	-2
in	-3
▁s	-4
▁the	-5
▁w	-6
re	-7
▁o	-8
▁b	-9
nd	-10
▁i	-11
▁c	-12
▁h	-13
ed	-14
▁m	-15
er	-16
▁f	-17
ou	-18
at	-19
ing	-20
▁to	-21
on	-22
en	-23
▁d	-24
▁p	-25
▁and	-26
▁he	-27
or	-28
▁l	-29
▁th	-30
es	-31
is	-32
as	-33
an	-34
▁of	-35
▁in	-36
ll	-37
it	-38
ar	-39
▁n	-40
▁g	-41
om	-42
▁e	-43
▁be	-44
▁ha	-45
le	-46
ic	-47
ow	-48
ut	-49
al	-50
ot	-51
▁was	-52
ve	-53
▁y	-54
▁re	-55
ac	-56
▁on	-57
ld	-58
▁it	-59
us	-60
▁that	-61
ion	-62
id	-63
ly	-64
▁st	-65
gh	-66
et	-67
ent	-68
▁we	-69
im	-70
▁you	-71
ay	-72
▁r	-73
ver	-74
▁her	-75
▁wh	-76
▁for	-77
▁as	-78
ith	-79
ur	-80
▁his	-81
ir	-82
os	-83
▁with	-84
▁she	-85
ad	-86
▁u	-87
▁k	-88
▁an	-89
ould	-90
am	-91
ght	-92
oo	-93
nt	-94
el	-95
▁is	-96
▁had	-97
▁j	-98
▁li	-99
her	-100
ec	-101
▁at	-102
▁fr	-103
all	-104
st	-105
ce	-106
ke	-107
▁me	-108
▁my	-109
ro	-110
▁sh	-111
▁but	-112
▁not	-113
il	-114
ill	-115
ch	-116
ter	-117
ain	-118
▁se	-119
pp	-120
ore	-121
▁they	-122
ri	-123
▁ne	-124
ant	-125
▁so	-126
red	-127
▁ch	-128
▁do	-129
ation	-130
▁from	-131
▁him	-132
ome	-133
▁con	-134
▁this	-135
ight	-136
ack	-137
rou	-138
▁su	-139
ess	-140
▁whe	-141
▁al	-142
▁all	-143
ge	-144
ul	-145
se	-146
▁have	-147
▁out	-148
th	-149
▁were	-150
ra	-151
ust	-152
▁up	-153
▁or	-154
▁ab	-155
▁ex	-156
ers	-157
▁v	-158
▁le	-159
▁de	-160
▁go	-161
ard	-162
op	-163
▁int	-164
▁sp	-165
um	-166
▁kn	-167
ked	-168
qu	-169
out	-170
▁would	-171
ab	-172
res	-173
ist	-174
ate	-175
ie	-176
ind	-177
▁are	-178
un	-179
est	-180
..	-181
ol	-182
▁wor	-183
ct	-184
king	-185
and	-186
▁fe	-187
art	-188
one	-189
▁com	-190
▁one	-191
▁by	-192
if	-193
ig	-194
▁sa	-195
▁if	-196
▁tr	-197
▁could	-198
▁what	-199
ast	-200
▁no	-201
▁there	-202
ally	-203
ect	-204
▁cl	-205
▁them	-206
▁us	-207
▁when	-208
em	-209
▁im	-210
ive	-211
▁their	-212
ood	-213
▁pl	-214
own	-215
▁pro	-216
ide	-217
▁like	-218
▁into	-219
▁tim	-220
▁did	-221
ven	-222
▁back	-223
very	-224
ong	-225
hed	-226
ap	-227
ous	-228
ity	-229
▁man	-230
ep	-231
ace	-232
▁loo	-233
▁ma	-234
ther	-235
▁about	-236
oc	-237
▁some	-238
▁can	-239
▁ag	-240
▁un	-241
hing	-242
▁bl	-243
ort	-244
fe	-245
ame	-246
▁who	-247
▁any	-248
▁just	-249
ell	-250
▁been	-251
▁your	-252
▁will	-253
▁over	-254
▁en	-255
ost	-256
way	-257
ose	-258
▁then	-259
ies	-260
▁time	-261
od	-262
▁its	-263
ment	-264
▁ar	-265
are	-266
▁pr	-267
▁more	-268
▁other	-269
ont	-270
our	-271
▁know	-272
▁co	-273
▁ta	-274
▁af	-275
▁fl	-276
▁ro	-277
round	-278
▁qu	-279
ine	-280
ated	-281
ich	-282
ag	-283
▁get	-284
ure	-285
▁how	-286
ved	-287
ice	-288
▁down	-289
▁sc	-290
▁sm	-291
urn	-292
elf	-293
▁pe	-294
▁hand	-295
▁bec	-296
▁tw	-297
ip	-298
ud	-299
▁off	-300
pt	-301
ks	-302
▁thou	-303
▁our	-304
act	-305
▁too	-306
▁exp	-307
ound	-308
ving	-309
ass	-310
ile	-311
▁br	-312
reat	-313
▁want	-314
▁now	-315
▁see	-316
▁even	-317
▁ac	-318
▁only	-319
ry	-320
fore	-321
ans	-322
▁every	-323
other	-324
ull	-325
nder	-326
ear	-327
▁than	-328
▁again	-329
▁ad	-330
aus	-331
▁said	-332
ib	-333
iz	-334
itt	-335
ress	-336
▁way	-337
ings	-338
▁am	-339
uc	-340
▁cont	-341
▁dis	-342
ft	-343
ire	-344
ick	-345
rough	-346
▁ey	-347
▁after	-348
▁before	-349
▁sl	-350
▁through	-351
ance	-352
...	-353
ach	-354
able	-355
▁which	-356
oss	-357
▁comp	-358
ove	-359
ade	-360
iv	-361
ite	-362
▁gr	-363
ions	-364
age	-365
▁res	-366
self	-367
ue	-368
▁.	-369
▁didnt	-370
▁peop	-371
led	-372
ence	-373
ff	-374
▁around	-375
ious	-376
▁head	-377
▁people	-378
▁has	-379
▁day	-380
ang	-381
ered	-382
wn	-383
▁thin	-384
▁cr	-385
omet	-386
ause	-387
ond	-388
ree	-389
▁two	-390
▁need	-391
pped	-392
▁per	-393
▁somet	-394
ward	-395
▁app	-396
▁fir	-397
▁em	-398
▁pre	-399
ak	-400
og	-401
▁eyes	-402
ath	-403
▁under	-404
▁long	-405
ild	-406
▁rem	-407
▁where	-408
ens	-409
▁wat	-410
▁mar	-411
▁car	-412
▁well	-413
▁mu	-414
▁god	-415
▁right	-416
▁bet	-417
▁thought	-418
▁gl	-419
▁turn	-420
▁still	-421
▁dont	-422
▁first	-423
▁des	-424
int	-425
▁say	-426
ves	-427
▁la	-428
ase	-429
▁id	-430
▁because	-431
orm	-432
▁part	-433
ber	-434
▁op	-435
▁te	-436
ial	-437
ning	-438
▁should	-439
▁gu	-440
▁life	-441
ys	-442
▁made	-443
iss	-444
▁new	-445
▁may	-446
ia	-447
ew	-448
ord	-449
▁sw	-450
▁str	-451
▁act	-452
▁bo	-453
▁good	-454
ult	-455
ather	-456
▁much	-457
▁something	-458
▁never	-459
thing	-460
▁fo	-461
▁wa	-462
les	-463
▁away	-464
▁here	-465
▁feel	-466
▁year	-467
▁going	-468
▁att	-469
ors	-470
ount	-471
▁po	-472
ical	-473
ared	-474
▁looked	-475
ren	-476
ough	-477
▁jo	-478
ons	-479
▁imp	-480
▁let	-481
▁make	-482
▁mo	-483
ied	-484
▁che	-485
side	-486
▁bel	-487
▁while	-488
ily	-489
ish	-490
ations	-491
▁being	-492
▁hel	-493
oth	-494
so	-495
▁dec	-496
ting	-497
ign	-498
ody	-499
ug	-500
▁most	-501
ened	-502
▁,	-503
▁sur	-504
▁room	-505
▁ke	-506
▁rep	-507
ary	-508
▁these	-509
▁ear	-510
▁think	-511
▁face	-512
▁inc	-513
▁ph	-514
ness	-515
▁wal	-516
▁rel	-517
▁real	-518
▁litt	-519
elt	-520
vel	-521
ark	-522
▁got	-523
▁little	-524
av	-525
▁sec	-526
ave	-527
▁very	-528
anc	-529
ory	-530
ful	-531
▁start	-532
▁happ	-533
▁own	-534
▁call	-535
▁rec	-536
▁those	-537
ying	-538
▁take	-539
▁also	-540
air	-541
▁ho	-542
te	-543
ub	-544
▁knew	-545
ents	-546
▁door	-547
ise	-548
▁ev	-549
ady	-550
▁arm	-551
ched	-552
▁el	-553
▁seem	-554
ried	-555
▁ent	-556
ock	-557
▁ass	-558
▁mat	-559
▁pers	-560
▁ind	-561
ert	-562
▁come	-563
hes	-564
igh	-565
xt	-566
▁beg	-567
▁sin	-568
▁few	-569
▁mom	-570
▁another	-571
▁end	-572
▁help	-573
▁felt	-574
▁look	-575
▁many	-576
get	-577
▁world	-578
▁ob	-579
▁comm	-580
▁fin	-581
▁took	-582
▁left	-583
▁dr	-584
▁wr	-585
ble	-586
▁find	-587
▁work	-588
▁things	-589
ition	-590
▁ser	-591
ian	-592
▁sk	-593
▁each	-594
ating	-595
▁old	-596
owed	-597
▁hum	-598
ict	-599
▁wom	-600
▁dif	-601
▁night	-602
ower	-603
▁tell	-604
amp	-605
▁light	-606
▁came	-607
▁mind	-608
▁acc	-609
ible	-610
▁beh	-611
ail	-612
end	-613
▁unt	-614
ual	-615
▁found	-616
vers	-617
ouse	-618
▁wasnt	-619
▁war	-620
ty	-621
▁inst	-622
ool	-623
▁tal	-624
ook	-625
▁side	-626
ways	-627
een	-628
▁met	-629
▁both	-630
▁years	-631
▁put	-632
▁why	-633
▁cle	-634
be	-635
uct	-636
▁set	-637
▁body	-638
per	-639
uck	-640
▁gra	-641
▁last	-642
▁lo	-643
ps	-644
rent	-645
▁same	-646
▁bu	-647
▁word	-648
ually	-649
▁went	-650
▁against	-651
▁place	-652
▁min	-653
▁ret	-654
▁gen	-655
ah	-656
▁really	-657
ling	-658
▁though	-659
▁such	-660
ange	-661
▁inf	-662
▁sure	-663
▁person	-664
▁turned	-665
▁wanted	-666
▁small	-667
dd	-668
▁might	-669
▁belie	-670
▁fam	-671
▁cor	-672
▁cons	-673
▁love	-674
▁hands	-675
iend	-676
▁home	-677
ream	-678
▁cell	-679
▁without	-680
▁inv	-681
▁inter	-682
▁toward	-683
▁next	-684
▁once	-685
▁keep	-686
▁pull	-687
▁until	-688
▁friend	-689
▁saw	-690
▁told	-691
▁always	-692
▁hard	-693
▁pass	-694
▁enough	-695
▁great	-696
ged	-697
cept	-698
▁does	-699
ner	-700
▁bre	-701
▁foll	-702
▁nothing	-703
owing	-704
▁child	-705
▁)	-706
▁sat	-707
▁far	-708
▁must	-709
▁rest	-710
less	-711
ned	-712
ph	-713
▁house	-714
ng	-715
▁dark	-716
cer	-717
▁ste	-718
▁point	-719
▁open	-720
na	-721
▁behind	-722
▁sim	-723
ween	-724
▁between	-725
▁thing	-726
ited	-727
▁couldnt	-728
▁three	-729
▁high	-730
▁pat	-731
irl	-732
▁gre	-733
▁reg	-734
▁...	-735
ne	-736
▁sy	-737
ught	-738
▁resp	-739
▁anything	-740
cc	-741
az	-742
▁since	-743
▁supp	-744
▁diffe	-745
med	-746
▁men	-747
aring	-748
▁stand	-749
▁gi	-750
ple	-751
▁run	-752
▁tra	-753
▁cur	-754
▁hu	-755
▁bed	-756
▁ever	-757
ken	-758
▁pres	-759
ows	-760
▁heart	-761
▁himself	-762
▁ill	-763
ained	-764
enc	-765
ted	-766
▁chr	-767
▁mon	-768
▁looking	-769
ized	-770
pl	-771
▁front	-772
ates	-773
▁underst	-774
ching	-775
▁father	-776
▁contin	-777
▁dri	-778
▁girl	-779
iet	-780
▁lar	-781
▁plan	-782
▁clos	-783
▁ca	-784
ific	-785
▁sub	-786
▁dra	-787
ised	-788
▁care	-789
▁hop	-790
▁dist	-791
▁moment	-792
ier	-793
▁conf	-794
▁mor	-795
▁sign	-796
uth	-797
▁char	-798
▁count	-799
▁disc	-800
▁wind	-801
ected	-802
▁ang	-803
oice	-804
bed	-805
ever	-806
▁second	-807
▁seemed	-808
▁play	-809
ater	-810
▁ed	-811
▁hed	-812
▁ter	-813
▁z	-814
▁black	-815
▁red	-816
▁stud	-817
ense	-818
▁cour	-819
ient	-820
▁everything	-821
▁used	-822
▁cou	-823
▁cre	-824
als	-825
▁det	-826
▁human	-827
▁quick	-828
ased	-829
▁form	-830
▁eff	-831
▁water	-832
its	-833
▁spe	-834
ix	-835
ung	-836
▁air	-837
▁flo	-838
▁expl	-839
▁poss	-840
iting	-841
▁thats	-842
▁sch	-843
▁fact	-844
▁give	-845
ular	-846
ention	-847
▁power	-848
ably	-849
▁mother	-850
▁es	-851
day	-852
▁inside	-853
▁better	-854
▁alm	-855
ined	-856
ret	-857
▁bus	-858
▁sound	-859
▁wall	-860
ished	-861
ten	-862
▁read	-863
▁use	-864
▁hold	-865
▁sil	-866
▁bar	-867
▁pain	-868
▁someone	-869
ason	-870
ins	-871
outh	-872
▁comple	-873
der	-874
▁coll	-875
▁add	-876
ross	-877
ided	-878
ash	-879
ank	-880
▁started	-881
▁pol	-882
▁tre	-883
▁christ	-884
▁blood	-885
▁col	-886
▁big	-887
▁full	-888
▁hair	-889
irect	-890
▁yet	-891
ately	-892
▁ins	-893
▁near	-894
▁different	-895
ures	-896
▁woman	-897
▁across	-898
▁deep	-899
olog	-900
ject	-901
ters	-902
▁youre	-903
▁lot	-904
▁prot	-905
▁family	-906
▁spec	-907
hn	-908
▁breat	-909
ready	-910
▁ref	-911
▁cant	-912
▁already	-913
▁return	-914
▁kill	-915
▁almost	-916
ility	-917
gether	-918
▁together	-919
▁direct	-920
▁kind	-921
▁maybe	-922
▁vis	-923
kes	-924
▁ple	-925
▁remem	-926
▁fore	-927
▁along	-928
▁trans	-929
att	-930
ached	-931
▁hal	-932
▁began	-933
▁par	-934
▁trying	-935
▁sle	-936
▁ra	-937
lect	-938
▁understand	-939
▁mem	-940
pping	-941
▁young	-942
up	-943
▁aw	-944
▁hour	-945
▁quest	-946
uring	-947
ere	-948
▁tri	-949
▁past	-950
ities	-951
▁dem	-952
ither	-953
hip	-954
▁heard	-955
▁others	-956
▁ap	-957
▁pa	-958
▁best	-959
ering	-960
▁seen	-961
▁leg	-962
▁asked	-963
▁perf	-964
ired	-965
▁stood	-966
▁pur	-967
▁cap	-968
ines	-969
▁lead	-970
▁days	-971
▁done	-972
ative	-973
▁med	-974
▁walked	-975
▁wee	-976
▁hes	-977
eri	-978
▁miss	-979
ently	-980
▁move	-981
ute	-982
▁able	-983
ts	-984
▁ide	-985
gg	-986
arent	-987
▁tried	-988
▁cent	-989
ms	-990
▁eas	-991
▁loc	-992
▁dep	-993
oy	-994
▁close	-995
cl	-996
▁soon	-997
▁feet	-998
▁called	-999
▁mus	-1000
ene	-1001
ump	-1002
here	-1003
iness	-1004
▁da	-1005
▁dro	-1006
ured	-1007
▁later	-1008
ically	-1009
hen	-1010
▁bit	-1011
▁stay	-1012
▁sn	-1013
▁doing	-1014
▁needed	-1015
▁words	-1016
els	-1017
aced	-1018
▁mean	-1019
▁gave	-1020
▁myself	-1021
▁school	-1022
▁having	-1023
ize	-1024
ets	-1025
▁shed	-1026
ertain	-1027
▁large	-1028
▁however	-1029
▁else	-1030
▁nec	-1031
▁ive	-1032
ments	-1033
▁spir	-1034
umb	-1035
▁sit	-1036
▁land	-1037
to	-1038
ression	-1039
▁har	-1040
▁voice	-1041
▁fall	-1042
▁floor	-1043
yp	-1044
▁pulled	-1045
ept	-1046
▁within	-1047
ink	-1048
lic	-1049
▁bri	-1050
▁ground	-1051
▁list	-1052
▁slow	-1053
ued	-1054
▁del	-1055
▁times	-1056
▁believe	-1057
br	-1058
▁contro	-1059
ressed	-1060
▁least	-1061
sw	-1062
idd	-1063
▁four	-1064
▁bro	-1065
▁nat	-1066
ced	-1067
▁wo	-1068
▁white	-1069
▁def	-1070
pr	-1071
▁fing	-1072
▁getting	-1073
▁name	-1074
▁stop	-1075
iled	-1076
aps	-1077
▁step	-1078
gn	-1079
▁sto	-1080
▁top	-1081
▁half	-1082
▁grou	-1083
▁build	-1084
ants	-1085
sel	-1086
▁death	-1087
ma	-1088
▁lear	-1089
iver	-1090
▁fa	-1091
▁clear	-1092
▁fur	-1093
▁fire	-1094
▁appro	-1095
▁everyone	-1096
▁sun	-1097
▁er	-1098
man	-1099
▁herself	-1100
▁table	-1101
▁held	-1102
▁eng	-1103
▁prob	-1104
▁making	-1105
▁arms	-1106
ield	-1107
▁answ	-1108
ully	-1109
ection	-1110
▁short	-1111
ott	-1112
io	-1113
tern	-1114
▁free	-1115
▁mouth	-1116
▁pos	-1117
irt	-1118
iew	-1119
▁less	-1120
▁gener	-1121
itting	-1122
ars	-1123
▁quickly	-1124
▁hor	-1125
▁friends	-1126
▁ext	-1127
▁book	-1128
ny	-1129
▁finally	-1130
▁thr	-1131
▁bad	-1132
▁reason	-1133
rew	-1134
oney	-1135
▁mod	-1136
▁earth	-1137
▁pus	-1138
▁sever	-1139
icked	-1140
▁wouldnt	-1141
▁morning	-1142
▁meet	-1143
▁become	-1144
▁leave	-1145
▁prop	-1146
▁dead	-1147
▁coming	-1148
ric	-1149
▁jes	-1150
▁pri	-1151
▁towards	-1152
selves	-1153
▁yes	-1154
▁fun	-1155
▁course	-1156
ger	-1157
▁hear	-1158
ially	-1159
▁prom	-1160
▁cal	-1161
ides	-1162
ird	-1163
▁upon	-1164
▁adv	-1165
fort	-1166
▁children	-1167
▁jesus	-1168
▁feeling	-1169
▁several	-1170
ake	-1171
ening	-1172
fully	-1173
▁ran	-1174
ains	-1175
vious	-1176
▁import	-1177
▁hur	-1178
▁probably	-1179
▁spirit	-1180
▁incl	-1181
▁certain	-1182
utes	-1183
▁cat	-1184
▁complete	-1185
▁ve	-1186
▁squ	-1187
erg	-1188
▁cancer	-1189
▁av	-1190
▁whole	-1191
▁mr	-1192
▁result	-1193
▁during	-1194
ists	-1195
▁stre	-1196
aking	-1197
uff	-1198
dden	-1199
ids	-1200
▁soc	-1201
▁tou	-1202
▁control	-1203
▁given	-1204
▁experi	-1205
ics	-1206
▁ant	-1207
▁living	-1208
▁outside	-1209
ues	-1210
erest	-1211
oke	-1212
▁imag	-1213
▁remember	-1214
▁sudden	-1215
▁state	-1216
▁either	-1217
▁anyone	-1218
ames	-1219
▁taking	-1220
aining	-1221
stem	-1222
▁hadnt	-1223
▁sleep	-1224
gr	-1225
▁opp	-1226
▁lord	-1227
velop	-1228
▁gone	-1229
▁fill	-1230
cess	-1231
▁stra	-1232
▁inform	-1233
▁fight	-1234
oud	-1235
ards	-1236
▁tum	-1237
▁law	-1238
▁chang	-1239
▁kept	-1240
▁city	-1241
ead	-1242
▁unc	-1243
▁occ	-1244
▁nor	-1245
▁prov	-1246
orn	-1247
▁moved	-1248
▁system	-1249
▁sing	-1250
osp	-1251
ices	-1252
ution	-1253
).	-1254
▁proble	-1255
▁creat	-1256
▁fell	-1257
▁interest	-1258
▁idea	-1259
ism	-1260
▁num	-1261
osed	-1262
▁change	-1263
▁show	-1264
aces	-1265
by	-1266
▁matter	-1267
▁lea	-1268
▁money	-1269
▁true	-1270
ract	-1271
▁happened	-1272
aut	-1273
▁try	-1274
irc	-1275
▁cra	-1276
▁cells	-1277
▁breath	-1278
▁talk	-1279
unt	-1280
▁fig	-1281
▁taken	-1282
▁truth	-1283
▁stopped	-1284
▁alone	-1285
▁mess	-1286
▁case	-1287
mm	-1288
▁onto	-1289
▁hell	-1290
▁main	-1291
▁food	-1292
▁reached	-1293
▁fre	-1294
▁actually	-1295
room	-1296
▁dream	-1297
▁dou	-1298
uss	-1299
ife	-1300
▁opened	-1301
▁group	-1302
▁self	-1303
▁live	-1304
▁five	-1305
▁sou	-1306
ane	-1307
ective	-1308
aw	-1309
▁smile	-1310
▁strong	-1311
ident	-1312
ck	-1313
▁foot	-1314
▁grab	-1315
▁job	-1316
▁level	-1317
▁prod	-1318
▁mag	-1319
rought	-1320
▁val	-1321
▁line	-1322
▁bur	-1323
▁instead	-1324
▁heal	-1325
▁using	-1326
▁lost	-1327
head	-1328
▁mil	-1329
▁fear	-1330
otion	-1331
ape	-1332
▁beaut	-1333
▁circ	-1334
▁eye	-1335
▁minutes	-1336
eared	-1337
land	-1338
▁thinking	-1339
▁mark	-1340
where	-1341
▁wood	-1342
▁sens	-1343
▁includ	-1344
airs	-1345
▁month	-1346
used	-1347
ives	-1348
ored	-1349
▁brother	-1350
▁dam	-1351
antly	-1352
app	-1353
▁forward	-1354
ee	-1355
▁dev	-1356
▁sho	-1357
▁skin	-1358
▁parent	-1359
▁hope	-1360
ipped	-1361
▁slowly	-1362
▁dest	-1363
▁hot	-1364
▁doesnt	-1365
ians	-1366
▁question	-1367
▁above	-1368
▁class	-1369
▁bring	-1370
▁kiss	-1371
▁sent	-1372
▁cond	-1373
▁surpr	-1374
▁sol	-1375
▁develop	-1376
▁test	-1377
▁brought	-1378
▁quite	-1379
▁watched	-1380
▁swe	-1381
▁continued	-1382
▁says	-1383
▁order	-1384
ones	-1385
▁sense	-1386
▁ir	-1387
▁arri	-1388
▁low	-1389
▁today	-1390
ime	-1391
▁tem	-1392
▁const	-1393
▁wonder	-1394
▁road	-1395
▁ask	-1396
▁pub	-1397
),	-1398
▁est	-1399
▁ready	-1400
row	-1401
▁blue	-1402
▁lay	-1403
▁walk	-1404
▁adm	-1405
▁aff	-1406
▁path	-1407
ruct	-1408
ots	-1409
▁entire	-1410
▁ones	-1411
iding	-1412
▁requ	-1413
▁women	-1414
iced	-1415
▁decided	-1416
ational	-1417
▁bas	-1418
▁known	-1419
▁break	-1420
▁partic	-1421
▁serv	-1422
▁cut	-1423
▁hall	-1424
▁son	-1425
▁king	-1426
cious	-1427
▁hours	-1428
▁town	-1429
▁wrong	-1430
▁became	-1431
▁var	-1432
▁boy	-1433
▁imm	-1434
ination	-1435
▁je	-1436
▁dad	-1437
cent	-1438
▁art	-1439
▁commun	-1440
▁often	-1441
ging	-1442
cri	-1443
▁soft	-1444
▁further	-1445
▁prof	-1446
vent	-1447
itc	-1448
ital	-1449
▁mas	-1450
▁pi	-1451
arch	-1452
▁begin	-1453
▁typ	-1454
▁standing	-1455
▁oh	-1456
▁possible	-1457
ural	-1458
ton	-1459
▁chest	-1460
anced	-1461
haps	-1462
read	-1463
▁business	-1464
ories	-1465
▁bes	-1466
vern	-1467
not	-1468
▁ten	-1469
▁theres	-1470
ison	-1471
▁pay	-1472
▁number	-1473
ister	-1474
▁activ	-1475
▁exc	-1476
▁important	-1477
▁expression	-1478
▁followed	-1479
▁longer	-1480
▁story	-1481
▁ago	-1482
▁perhaps	-1483
▁ris	-1484
mb	-1485
▁jack	-1486
ision	-1487
imes	-1488
▁cold	-1489
▁working	-1490
▁hit	-1491
▁ele	-1492
▁john	-1493
▁rather	-1494
▁attack	-1495
ivers	-1496
▁chur	-1497
▁area	-1498
▁lim	-1499
gan	-1500
though	-1501
ages	-1502
▁grand	-1503
▁tar	-1504
ces	-1505
▁attention	-1506
▁incre	-1507
▁suddenly	-1508
▁cross	-1509
▁phone	-1510
ike	-1511
▁norm	-1512
ze	-1513
ob	-1514
ider	-1515
▁mir	-1516
▁couple	-1517
aged	-1518
▁ann	-1519
▁parents	-1520
▁sal	-1521
fic	-1522
▁bab	-1523
▁roll	-1524
▁quiet	-1525
▁glass	-1526
▁win	-1527
▁bra	-1528
▁sitting	-1529
▁compan	-1530
▁smiled	-1531
sh	-1532
▁ge	-1533
▁lips	-1534
▁although	-1535
▁window	-1536
▁waiting	-1537
▁bene	-1538
ears	-1539
▁jud	-1540
▁accept	-1541
▁closed	-1542
▁obs	-1543
me	-1544
▁ok	-1545
▁pot	-1546
▁).	-1547
▁neck	-1548
▁ori	-1549
itive	-1550
▁exist	-1551
▁warm	-1552
ror	-1553
▁pret	-1554
ances	-1555
▁present	-1556
ru	-1557
eric	-1558
▁deal	-1559
rence	-1560
▁view	-1561
▁clot	-1562
▁information	-1563
erv	-1564
ony	-1565
▁building	-1566
▁perfect	-1567
iling	-1568
▁themselves	-1569
▁shes	-1570
atever	-1571
▁running	-1572
▁grow	-1573
▁talking	-1574
ats	-1575
medi	-1576
▁six	-1577
▁rece	-1578
▁lean	-1579
iful	-1580
▁treat	-1581
▁whatever	-1582
▁process	-1583
ush	-1584
▁esc	-1585
▁wait	-1586
▁enj	-1587
enty	-1588
ik	-1589
▁sex	-1590
erm	-1591
▁saying	-1592
▁anal	-1593
ips	-1594
▁among	-1595
▁office	-1596
▁pet	-1597
gth	-1598
▁bott	-1599
▁happy	-1600
▁repl	-1601
▁caught	-1602
▁cry	-1603
ina	-1604
▁soul	-1605
▁fingers	-1606
ior	-1607
ilt	-1608
▁pap	-1609
anger	-1610
▁abs	-1611
▁caus	-1612
▁church	-1613
▁thoughts	-1614
▁pract	-1615
▁conn	-1616
▁tor	-1617
▁hund	-1618
▁passed	-1619
ience	-1620
▁sus	-1621
▁tumor	-1622
ified	-1623
rap	-1624
▁disapp	-1625
▁hundred	-1626
▁green	-1627
▁gods	-1628
ech	-1629
▁tight	-1630
▁event	-1631
▁cla	-1632
▁apart	-1633
co	-1634
▁sor	-1635
▁news	-1636
▁foc	-1637
▁immedi	-1638
▁pray	-1639
▁din	-1640
▁chance	-1641
▁legs	-1642
▁offic	-1643
▁street	-1644
ply	-1645
▁equ	-1646
aching	-1647
▁ident	-1648
▁und	-1649
▁effect	-1650
▁super	-1651
▁heav	-1652
ming	-1653
▁pop	-1654
▁early	-1655
▁bill	-1656
▁fut	-1657
▁pretty	-1658
▁piec	-1659
▁situ	-1660
▁week	-1661
▁exact	-1662
▁means	-1663
▁phys	-1664
▁gun	-1665
▁americ	-1666
▁shoulder	-1667
▁speak	-1668
ement	-1669
▁ver	-1670
▁scream	-1671
▁prep	-1672
▁space	-1673
idence	-1674
▁burn	-1675
▁inh	-1676
▁dan	-1677
▁anim	-1678
empt	-1679
▁esp	-1680
ator	-1681
▁hist	-1682
▁surv	-1683
▁filled	-1684
▁wont	-1685
▁straight	-1686
▁team	-1687
eth	-1688
▁energ	-1689
bing	-1690
zy	-1691
▁die	-1692
▁watch	-1693
▁meant	-1694
▁hon	-1695
und	-1696
yl	-1697
▁watching	-1698
▁sometimes	-1699
▁lift	-1700
ases	-1701
▁forg	-1702
▁enc	-1703
body	-1704
ef	-1705
▁sort	-1706
old	-1707
▁cop	-1708
▁support	-1709
▁govern	-1710
▁age	-1711
asp	-1712
ax	-1713
▁completely	-1714
ughter	-1715
▁mount	-1716
▁capt	-1717
▁desp	-1718
ude	-1719
ology	-1720
▁beautiful	-1721
▁cannot	-1722
▁single	-1723
ift	-1724
ients	-1725
▁reve	-1726
▁led	-1727
▁ign	-1728
▁gri	-1729
▁trust	-1730
▁problem	-1731
▁nodd	-1732
▁mer	-1733
▁doub	-1734
▁tom	-1735
▁relations	-1736
▁ce	-1737
▁lives	-1738
▁shall	-1739
▁bag	-1740
▁mill	-1741
ern	-1742
ledge	-1743
▁mut	-1744
ork	-1745
▁answer	-1746
▁lit	-1747
▁guy	-1748
▁clean	-1749
▁batt	-1750
▁fast	-1751
▁experience	-1752
ction	-1753
▁sugg	-1754
ery	-1755
ugg	-1756
▁suggest	-1757
▁looks	-1758
▁seeing	-1759
ale	-1760
▁report	-1761
▁secret	-1762
iddle	-1763
gin	-1764
▁slight	-1765
▁except	-1766
▁holding	-1767
▁cho	-1768
ief	-1769
▁bare	-1770
▁ord	-1771
vered	-1772
unch	-1773
▁force	-1774
the	-1775
inc	-1776
oun	-1777
▁simply	-1778
▁personal	-1779
▁div	-1780
▁noticed	-1781
▁non	-1782
▁realized	-1783
▁sold	-1784
oon	-1785
ote	-1786
uced	-1787
▁moving	-1788
▁rele	-1789
▁guess	-1790
▁drag	-1791
ogn	-1792
▁espec	-1793
▁elect	-1794
▁pict	-1795
▁auth	-1796
▁worked	-1797
ires	-1798
▁invest	-1799
▁gaz	-1800
▁faith	-1801
▁follow	-1802
ugh	-1803
▁mass	-1804
▁sight	-1805
▁chair	-1806
▁girls	-1807
atic	-1808
▁invol	-1809
▁mur	-1810
▁gold	-1811
bs	-1812
echn	-1813
▁concer	-1814
▁wife	-1815
▁command	-1816
▁whether	-1817
▁months	-1818
▁comfort	-1819
▁future	-1820
▁camp	-1821
▁pal	-1822
▁stri	-1823
▁appeared	-1824
▁leaving	-1825
▁walking	-1826
▁fail	-1827
ooks	-1828
▁succ	-1829
▁obvious	-1830
ili	-1831
▁empt	-1832
▁late	-1833
▁please	-1834
ffe	-1835
light	-1836
ulation	-1837
▁makes	-1838
lex	-1839
▁especially	-1840
▁itself	-1841
▁returned	-1842
rib	-1843
▁safe	-1844
bers	-1845
oid	-1846
iny	-1847
ocked	-1848
▁hung	-1849
▁middle	-1850
itchen	-1851
▁energy	-1852
▁diffic	-1853
▁position	-1854
▁kitchen	-1855
▁trou	-1856
▁di	-1857
▁pack	-1858
▁difficult	-1859
acing	-1860
▁bright	-1861
▁techn	-1862
▁press	-1863
ising	-1864
▁rese	-1865
aled	-1866
▁clim	-1867
▁cover	-1868
▁loved	-1869
▁shad	-1870
▁wide	-1871
▁country	-1872
▁recogn	-1873
▁isnt	-1874
▁lab	-1875
▁field	-1876
owd	-1877
▁expect	-1878
▁bey	-1879
▁shot	-1880
▁maj	-1881
ches	-1882
▁thank	-1883
▁sky	-1884
▁yell	-1885
▁den	-1886
▁rad	-1887
▁comb	-1888
rod	-1889
▁wond	-1890
▁bal	-1891
night	-1892
ha	-1893
▁nodded	-1894
▁conv	-1895
▁convers	-1896
ey	-1897
▁whis	-1898
ries	-1899
▁spoke	-1900
▁sad	-1901
▁beyond	-1902
▁smell	-1903
ration	-1904
▁meth	-1905
▁immediately	-1906
ring	-1907
▁ben	-1908
asure	-1909
ges	-1910
▁relationship	-1911
▁pen	-1912
▁laugh	-1913
▁box	-1914
▁spot	-1915
ived	-1916
▁attempt	-1917
▁following	-1918
▁stepped	-1919
iated	-1920
ns	-1921
▁vi	-1922
▁closer	-1923
▁shook	-1924
ope	-1925
▁particular	-1926
▁showed	-1927
▁happen	-1928
▁cy	-1929
▁seat	-1930
ption	-1931
▁spent	-1932
▁bi	-1933
▁grabbed	-1934
▁theyre	-1935
▁organ	-1936
▁perform	-1937
iety	-1938
▁stone	-1939
▁jump	-1940
▁yourself	-1941
▁enjoy	-1942
▁knowing	-1943
amed	-1944
▁wed	-1945
usion	-1946
ivid	-1947
▁surround	-1948
▁hurt	-1949
▁target	-1950
▁sam	-1951
▁send	-1952
▁public	-1953
▁dog	-1954
com	-1955
▁hea	-1956
iqu	-1957
▁easy	-1958
▁corner	-1959
▁cast	-1960
▁eat	-1961
▁univers	-1962
▁pan	-1963
▁doct	-1964
▁comes	-1965
▁suff	-1966
▁relig	-1967
▁rock	-1968
▁strange	-1969
▁mad	-1970
▁giving	-1971
▁covered	-1972
son	-1973
▁draw	-1974
acy	-1975
▁dat	-1976
▁tot	-1977
▁appear	-1978
▁hig	-1979
▁shut	-1980
▁determ	-1981
▁special	-1982
▁wit	-1983
oint	-1984
▁study	-1985
▁demon	-1986
▁knowledge	-1987
▁twenty	-1988
▁police	-1989
▁susp	-1990
▁mist	-1991
▁success	-1992
▁weap	-1993
▁guard	-1994
▁bir	-1995
▁stared	-1996
ilar	-1997
▁nice	-1998
ency	-1999
▁exactly	-2000
▁crowd	-2001
▁dav	-2002
▁health	-2003
udd	-2004
▁tree	-2005
▁round	-2006
▁vict	-2007
▁drive	-2008
▁rev	-2009
▁okay	-2010
▁sett	-2011
▁ur	-2012
▁sand	-2013
ousand	-2014
▁thousand	-2015
▁cam	-2016
▁hosp	-2017
hel	-2018
ential	-2019
▁thro	-2020
▁pushed	-2021
▁intern	-2022
▁dress	-2023
arr	-2024
▁mis	-2025
▁situation	-2026
▁port	-2027
unk	-2028
▁hang	-2029
par	-2030
bo	-2031
▁hus	-2032
▁brain	-2033
sy	-2034
▁trees	-2035
▁died	-2036
▁et	-2037
▁tall	-2038
▁fine	-2039
dom	-2040
ann	-2041
▁peace	-2042
▁fav	-2043
▁signific	-2044
▁clothes	-2045
▁ball	-2046
iff	-2047
▁kids	-2048
▁fly	-2049
▁touch	-2050
▁paul	-2051
▁changed	-2052
▁purp	-2053
▁figure	-2054
▁normal	-2055
▁nearly	-2056
▁center	-2057
▁picked	-2058
over	-2059
band	-2060
▁summ	-2061
▁placed	-2062
iously	-2063
▁danger	-2064
▁shirt	-2065
▁game	-2066
▁author	-2067
▁ship	-2068
▁direction	-2069
ney	-2070
ashed	-2071
▁stuff	-2072
▁common	-2073
aded	-2074
▁assoc	-2075
▁edge	-2076
▁carry	-2077
▁patients	-2078
▁tears	-2079
isted	-2080
▁empty	-2081
▁nature	-2082
▁shar	-2083
▁wondered	-2084
esh	-2085
▁comput	-2086
▁spend	-2087
ster	-2088
▁weeks	-2089
ael	-2090
▁sorry	-2091
ences	-2092
nded	-2093
▁based	-2094
▁respons	-2095
▁killed	-2096
▁anyway	-2097
▁questions	-2098
▁ye	-2099
▁individ	-2100
let	-2101
▁descri	-2102
▁knows	-2103
▁results	-2104
uce	-2105
▁arrived	-2106
▁aware	-2107
▁stren	-2108
▁iss	-2109
▁seems	-2110
ining	-2111
▁design	-2112
irty	-2113
▁x	-2114
▁cause	-2115
▁major	-2116
▁gar	-2117
▁raised	-2118
▁wild	-2119
▁oper	-2120
ushed	-2121
ality	-2122
▁claim	-2123
▁mine	-2124
▁rub	-2125
aked	-2126
▁heaven	-2127
itted	-2128
▁drug	-2129
▁loud	-2130
▁aut	-2131
▁lived	-2132
une	-2133
▁possib	-2134
▁current	-2135
▁thick	-2136
▁post	-2137
ample	-2138
fer	-2139
action	-2140
▁including	-2141
▁product	-2142
ees	-2143
▁brown	-2144
▁mich	-2145
▁priv	-2146
▁effort	-2147
▁similar	-2148
▁fair	-2149
▁chee	-2150
▁sword	-2151
▁charac	-2152
▁method	-2153
▁becom	-2154
▁scre	-2155
▁earl	-2156
▁heavy	-2157
▁threat	-2158
▁necess	-2159
▁none	-2160
▁despite	-2161
▁books	-2162
▁dropped	-2163
gram	-2164
zz	-2165
ral	-2166
▁arr	-2167
▁huge	-2168
use	-2169
▁record	-2170
ization	-2171
more	-2172
ously	-2173
▁scr	-2174
▁poor	-2175
ils	-2176
▁reach	-2177
▁walls	-2178
ival	-2179
▁magic	-2180
ara	-2181
▁mention	-2182
▁eight	-2183
▁agre	-2184
▁music	-2185
▁check	-2186
▁rich	-2187
oring	-2188
▁beside	-2189
▁mot	-2190
▁sister	-2191
▁telling	-2192
▁learn	-2193
▁spread	-2194
▁consider	-2195
form	-2196
▁mic	-2197
ov	-2198
ession	-2199
▁luck	-2200
▁prim	-2201
lly	-2202
▁distance	-2203
▁government	-2204
▁ahead	-2205
▁specific	-2206
▁stom	-2207
▁fle	-2208
▁individual	-2209
▁paper	-2210
▁company	-2211
how	-2212
▁ut	-2213
onse	-2214
oof	-2215
itions	-2216
▁inhib	-2217
hered	-2218
▁mal	-2219
▁baby	-2220
▁battle	-2221
▁youve	-2222
erial	-2223
▁usually	-2224
▁below	-2225
ocks	-2226
uly	-2227
▁breast	-2228
▁waited	-2229
▁turning	-2230
urity	-2231
▁rose	-2232
ishing	-2233
▁bod	-2234
▁third	-2235
▁fif	-2236
▁detail	-2237
▁general	-2238
▁smo	-2239
▁needs	-2240
▁mult	-2241
▁finished	-2242
▁ru	-2243
▁husband	-2244
▁los	-2245
▁neg	-2246
ought	-2247
asing	-2248
▁visit	-2249
ental	-2250
▁strugg	-2251
▁simple	-2252
▁lets	-2253
▁weak	-2254
▁darkness	-2255
▁object	-2256
▁local	-2257
▁infl	-2258
▁remind	-2259
▁worth	-2260
ury	-2261
▁theyd	-2262
▁therefore	-2263
▁dom	-2264
ium	-2265
ises	-2266
▁inn	-2267
▁ways	-2268
▁response	-2269
resh	-2270
▁program	-2271
▁meeting	-2272
go	-2273
▁chap	-2274
▁steps	-2275
▁cult	-2276
con	-2277
▁conscious	-2278
▁desk	-2279
▁guys	-2280
▁corre	-2281
▁vol	-2282
▁spl	-2283
eless	-2284
▁arg	-2285
aling	-2286
▁evening	-2287
▁surf	-2288
▁jour	-2289
▁key	-2290
▁party	-2291
▁social	-2292
▁history	-2293
▁discuss	-2294
▁alex	-2295
▁accord	-2296
▁stat	-2297
wh	-2298
▁indic	-2299
por	-2300
▁protect	-2301
acher	-2302
line	-2303
▁separ	-2304
ays	-2305
▁hospital	-2306
▁shoulders	-2307
▁youll	-2308
▁allowed	-2309
▁unl	-2310
▁wra	-2311
▁lines	-2312
▁jer	-2313
▁van	-2314
itten	-2315
cy	-2316
▁due	-2317
▁doubt	-2318
▁boys	-2319
▁presence	-2320
ler	-2321
▁likely	-2322
erved	-2323
▁forest	-2324
▁pick	-2325
▁angel	-2326
ley	-2327
ills	-2328
▁star	-2329
▁supposed	-2330
▁rain	-2331
ode	-2332
▁conversation	-2333
iles	-2334
▁log	-2335
▁polit	-2336
▁evil	-2337
▁destro	-2338
rupt	-2339
▁vill	-2340
▁pun	-2341
▁broken	-2342
▁cloud	-2343
gress	-2344
▁born	-2345
▁coffe	-2346
▁headed	-2347
▁expected	-2348
▁data	-2349
str	-2350
▁worry	-2351
bered	-2352
▁silence	-2353
▁jew	-2354
▁regard	-2355
ify	-2356
▁cost	-2357
▁project	-2358
ex	-2359
rif	-2360
icking	-2361
port	-2362
▁previous	-2363
▁origin	-2364
▁planet	-2365
sed	-2366
▁members	-2367
ume	-2368
▁eventually	-2369
▁mel	-2370
▁reality	-2371
ana	-2372
ugged	-2373
▁created	-2374
▁wearing	-2375
izing	-2376
▁accom	-2377
▁beginning	-2378
▁contact	-2379
▁focus	-2380
▁coffee	-2381
asion	-2382
kn	-2383
▁throat	-2384
overed	-2385
▁mid	-2386
het	-2387
▁doors	-2388
▁viol	-2389
▁treatment	-2390
▁pred	-2391
▁strength	-2392
▁river	-2393
▁hunt	-2394
▁entered	-2395
▁alive	-2396
▁luc	-2397
▁somehow	-2398
aff	-2399
▁easily	-2400
▁managed	-2401
▁humans	-2402
aster	-2403
▁holy	-2404
▁intell	-2405
▁bath	-2406
lish	-2407
come	-2408
la	-2409
▁daughter	-2410
▁offe	-2411
▁university	-2412
▁type	-2413
▁laug	-2414
▁earlier	-2415
▁resist	-2416
▁travel	-2417
akes	-2418
▁dinner	-2419
▁drink	-2420
▁laughed	-2421
▁barely	-2422
ability	-2423
▁allow	-2424
iation	-2425
▁tow	-2426
▁wants	-2427
▁staring	-2428
▁takes	-2429
▁piece	-2430
▁purpose	-2431
val	-2432
▁store	-2433
▁dim	-2434
ended	-2435
▁notice	-2436
▁deb	-2437
sc	-2438
▁certainly	-2439
▁pock	-2440
▁sweet	-2441
▁rob	-2442
▁rap	-2443
owers	-2444
▁chec	-2445
▁track	-2446
▁lu	-2447
▁clearly	-2448
▁action	-2449
▁share	-2450
▁len	-2451
▁brief	-2452
inite	-2453
▁natural	-2454
▁stomach	-2455
▁conside	-2456
▁sour	-2457
▁choice	-2458
▁ble	-2459
▁enem	-2460
▁considered	-2461
▁thus	-2462
▁leaned	-2463
ploy	-2464
eed	-2465
raid	-2466
istic	-2467
▁wound	-2468
▁physical	-2469
▁security	-2470
▁colle	-2471
▁bull	-2472
▁shr	-2473
▁addition	-2474
▁learned	-2475
▁michael	-2476
idden	-2477
▁flesh	-2478
▁higher	-2479
▁reading	-2480
▁sick	-2481
▁lack	-2482
▁minute	-2483
fet	-2484
▁worse	-2485
▁birth	-2486
▁opport	-2487
ca	-2488
▁gaze	-2489
▁states	-2490
▁dar	-2491
atter	-2492
▁stret	-2493
▁continue	-2494
▁env	-2495
▁speed	-2496
▁service	-2497
▁remembered	-2498
▁risk	-2499
▁anc	-2500
▁tong	-2501
▁pointed	-2502
▁afraid	-2503
▁analys	-2504
▁cool	-2505
▁opportun	-2506
▁glanced	-2507
ball	-2508
▁slightly	-2509
▁werent	-2510
▁subject	-2511
▁beneath	-2512
▁jos	-2513
idge	-2514
iers	-2515
▁finger	-2516
▁shout	-2517
▁material	-2518
▁mans	-2519
▁wish	-2520
▁somewhere	-2521
▁account	-2522
▁weight	-2523
▁various	-2524
usted	-2525
wards	-2526
▁cab	-2527
▁beat	-2528
▁north	-2529
▁mach	-2530
▁fort	-2531
▁hol	-2532
ature	-2533
▁occur	-2534
olution	-2535
▁motion	-2536
▁therap	-2537
▁trouble	-2538
▁rul	-2539
▁playing	-2540
▁apparent	-2541
essed	-2542
▁calm	-2543
▁tonight	-2544
▁surprised	-2545
▁emotion	-2546
▁nose	-2547
▁kid	-2548
▁emb	-2549
▁south	-2550
ipp	-2551
ades	-2552
▁remained	-2553
▁example	-2554
▁helped	-2555
▁hom	-2556
▁investig	-2557
iliar	-2558
▁ep	-2559
▁listen	-2560
▁places	-2561
▁amaz	-2562
▁david	-2563
▁lower	-2564
▁according	-2565
▁christian	-2566
ron	-2567
▁final	-2568
▁forced	-2569
inct	-2570
reme	-2571
▁bedroom	-2572
▁gro	-2573
▁lady	-2574
▁save	-2575
▁lang	-2576
▁computer	-2577
▁carried	-2578
▁character	-2579
gy	-2580
▁phot	-2581
▁added	-2582
uel	-2583
▁sea	-2584
▁depart	-2585
icle	-2586
▁grin	-2587
▁tiny	-2588
aint	-2589
uit	-2590
icks	-2591
▁liked	-2592
▁musc	-2593
▁defe	-2594
▁understanding	-2595
▁don	-2596
▁oppos	-2597
....	-2598
▁term	-2599
ias	-2600
▁reflect	-2601
tered	-2602
▁lie	-2603
▁goes	-2604
▁wel	-2605
▁whats	-2606
▁metal	-2607
▁bottom	-2608
ceed	-2609
▁truly	-2610
▁crack	-2611
▁allah	-2612
yle	-2613
▁concl	-2614
▁base	-2615
▁exam	-2616
allen	-2617
▁involved	-2618
hood	-2619
▁destroy	-2620
▁amount	-2621
▁forget	-2622
▁reb	-2623
▁gent	-2624
set	-2625
ites	-2626
▁rom	-2627
▁sar	-2628
▁powerful	-2629
ustom	-2630
▁fresh	-2631
▁respond	-2632
▁master	-2633
▁memory	-2634
ground	-2635
▁fit	-2636
▁evidence	-2637
oved	-2638
▁court	-2639
▁tele	-2640
zen	-2641
ented	-2642
▁hide	-2643
oses	-2644
▁grew	-2645
▁band	-2646
▁picture	-2647
▁stup	-2648
▁aftern	-2649
▁repe	-2650
▁seconds	-2651
itch	-2652
▁anger	-2653
▁older	-2654
▁desire	-2655
roll	-2656
▁dressed	-2657
itary	-2658
▁seven	-2659
▁teeth	-2660
▁park	-2661
ager	-2662
my	-2663
itor	-2664
▁vers	-2665
teen	-2666
right	-2667
▁heat	-2668
ilities	-2669
▁lifted	-2670
▁offer	-2671
▁station	-2672
▁repres	-2673
ped	-2674
▁written	-2675
work	-2676
▁clin	-2677
▁prote	-2678
▁catch	-2679
apt	-2680
▁events	-2681
▁hy	-2682
▁lights	-2683
▁willing	-2684
▁research	-2685
▁note	-2686
▁trad	-2687
▁witness	-2688
▁favor	-2689
▁message	-2690
▁rolled	-2691
▁respect	-2692
▁surface	-2693
▁spr	-2694
▁tast	-2695
▁mech	-2696
nding	-2697
▁moments	-2698
male	-2699
aped	-2700
▁init	-2701
▁counter	-2702
▁role	-2703
▁works	-2704
well	-2705
▁keeping	-2706
▁directly	-2707
iron	-2708
▁imagine	-2709
▁coo	-2710
▁avail	-2711
▁remain	-2712
yn	-2713
▁ring	-2714
rage	-2715
▁coun	-2716
▁bodies	-2717
▁color	-2718
▁estab	-2719
▁sac	-2720
ological	-2721
▁female	-2722
▁cand	-2723
zed	-2724
▁horse	-2725
▁neither	-2726
itation	-2727
▁sig	-2728
▁meaning	-2729
▁langu	-2730
▁army	-2731
miss	-2732
▁escape	-2733
▁trip	-2734
ask	-2735
iam	-2736
iction	-2737
▁afternoon	-2738
ulated	-2739
ively	-2740
isf	-2741
▁bird	-2742
▁depend	-2743
rance	-2744
▁shit	-2745
ners	-2746
▁ability	-2747
▁paus	-2748
enced	-2749
▁gets	-2750
▁hoped	-2751
▁displ	-2752
▁bow	-2753
ique	-2754
▁sear	-2755
▁ger	-2756
▁grace	-2757
▁explain	-2758
▁dig	-2759
▁challen	-2760
▁psy	-2761
▁problems	-2762
▁replied	-2763
▁neigh	-2764
▁stairs	-2765
▁sounds	-2766
.,	-2767
▁size	-2768
▁suit	-2769
▁glad	-2770
▁rid	-2771
▁wore	-2772
▁fully	-2773
pper	-2774
ince	-2775
▁pair	-2776
▁american	-2777
▁serious	-2778
▁ol	-2779
▁neighb	-2780
ayed	-2781
▁snow	-2782
▁lad	-2783
orrow	-2784
▁carefully	-2785
rec	-2786
erve	-2787
▁unf	-2788
ien	-2789
▁decision	-2790
▁fix	-2791
astic	-2792
▁lying	-2793
▁wis	-2794
▁jen	-2795
▁feelings	-2796
▁ended	-2797
ancing	-2798
▁growing	-2799
arm	-2800
▁angry	-2801
ai	-2802
▁extra	-2803
▁tired	-2804
itude	-2805
chie	-2806
erc	-2807
▁apartment	-2808
▁james	-2809
▁explained	-2810
▁familiar	-2811
▁odd	-2812
▁employ	-2813
▁doctor	-2814
▁whose	-2815
atory	-2816
▁activity	-2817
▁impro	-2818
men	-2819
▁blank	-2820
▁necessary	-2821
▁san	-2822
rible	-2823
▁demand	-2824
amb	-2825
▁caused	-2826
▁song	-2827
▁believed	-2828
▁stupid	-2829
▁mechan	-2830
ables	-2831
▁threw	-2832
▁offered	-2833
▁sna	-2834
ky	-2835
▁gently	-2836
▁feed	-2837
▁hat	-2838
iod	-2839
▁phil	-2840
▁surprise	-2841
▁educ	-2842
▁built	-2843
▁image	-2844
ocking	-2845
▁pulling	-2846
▁fac	-2847
pect	-2848
▁talked	-2849
▁anymore	-2850
▁concent	-2851
▁potential	-2852
wise	-2853
▁weve	-2854
▁hen	-2855
▁imposs	-2856
▁yeah	-2857
▁male	-2858
▁crit	-2859
▁gh	-2860
▁ban	-2861
▁forgot	-2862
▁stayed	-2863
ham	-2864
▁harm	-2865
▁relax	-2866
▁scient	-2867
▁dise	-2868
▁analysis	-2869
▁development	-2870
▁indeed	-2871
▁forth	-2872
ests	-2873
alth	-2874
▁broke	-2875
▁society	-2876
▁net	-2877
ension	-2878
▁realize	-2879
ference	-2880
▁vision	-2881
▁max	-2882
▁shop	-2883
umbled	-2884
▁moon	-2885
▁period	-2886
▁starting	-2887
▁knees	-2888
▁medical	-2889
▁levels	-2890
▁stories	-2891
▁teacher	-2892
olute	-2893
▁ess	-2894
▁joy	-2895
▁lose	-2896
iverse	-2897
urs	-2898
▁attract	-2899
▁desper	-2900
▁dut	-2901
▁function	-2902
umed	-2903
▁gard	-2904
▁opening	-2905
hy	-2906
imin	-2907
oned	-2908
▁mov	-2909
▁loss	-2910
▁understood	-2911
▁drove	-2912
▁writing	-2913
▁wrapped	-2914
▁introd	-2915
▁dry	-2916
▁ears	-2917
arily	-2918
▁satisf	-2919
oma	-2920
▁prison	-2921
▁bible	-2922
▁chapter	-2923
▁finding	-2924
▁select	-2925
▁drew	-2926
▁numb	-2927
▁communic	-2928
ls	-2929
▁stage	-2930
▁belong	-2931
ims	-2932
▁mere	-2933
▁played	-2934
▁tun	-2935
eral	-2936
▁sharp	-2937
▁behav	-2938
▁eth	-2939
▁compared	-2940
▁fat	-2941
▁firm	-2942
▁inj	-2943
lt	-2944
▁bound	-2945
▁pocket	-2946
▁silent	-2947
ogra	-2948
▁whom	-2949
▁obviously	-2950
▁west	-2951
▁nerv	-2952
▁asking	-2953
▁board	-2954
▁busy	-2955
▁sla	-2956
▁received	-2957
▁wet	-2958
▁fold	-2959
bit	-2960
▁honest	-2961
▁model	-2962
▁military	-2963
▁positive	-2964
riage	-2965
▁cas	-2966
▁vamp	-2967
▁doc	-2968
reg	-2969
ruction	-2970
▁forever	-2971
anted	-2972
ators	-2973
sequ	-2974
▁mrs	-2975
▁students	-2976
▁tomorrow	-2977
▁farm	-2978
▁dust	-2979
▁pressed	-2980
▁custom	-2981
▁struct	-2982
▁veh	-2983
ironment	-2984
▁compl	-2985
▁fil	-2986
▁soldiers	-2987
▁whisp	-2988
▁tongue	-2989
we	-2990
▁provide	-2991
amples	-2992
▁damn	-2993
▁truck	-2994
ashing	-2995
▁usual	-2996
▁card	-2997
aks	-2998
▁aud	-2999
▁rout	-3000
▁havent	-3001
orge	-3002
▁psych	-3003
▁paid	-3004
ipping	-3005
▁animals	-3006
▁windows	-3007
▁fighting	-3008
▁create	-3009
▁patient	-3010
▁enter	-3011
▁camer	-3012
▁access	-3013
▁shif	-3014
▁adj	-3015
▁falling	-3016
▁movement	-3017
▁fuc	-3018
▁occasion	-3019
▁screen	-3020
▁engine	-3021
▁opportunity	-3022
▁speaking	-3023
▁married	-3024
▁civ	-3025
▁throughout	-3026
▁college	-3027
▁avoid	-3028
▁available	-3029
▁fal	-3030
bert	-3031
hr	-3032
▁absolute	-3033
▁mostly	-3034
ensive	-3035
▁handed	-3036
▁thirty	-3037
▁hidden	-3038
▁spiritual	-3039
ument	-3040
▁cup	-3041
▁econ	-3042
▁flat	-3043
inking	-3044
▁hoping	-3045
▁gate	-3046
etic	-3047
▁complex	-3048
▁econom	-3049
▁extreme	-3050
▁stick	-3051
▁search	-3052
▁training	-3053
iel	-3054
ama	-3055
iple	-3056
▁growth	-3057
▁thanks	-3058
▁buy	-3059
▁cd	-3060
▁chem	-3061
▁leading	-3062
▁bank	-3063
hem	-3064
▁lou	-3065
rest	-3066
▁blind	-3067
▁stream	-3068
af	-3069
▁impossible	-3070
▁suc	-3071
▁influ	-3072
▁doll	-3073
gen	-3074
▁staff	-3075
▁q	-3076
▁island	-3077
▁national	-3078
▁tax	-3079
▁contr	-3080
▁definite	-3081
▁ice	-3082
▁hole	-3083
▁touched	-3084
▁correct	-3085
▁storm	-3086
▁approach	-3087
▁achie	-3088
uing	-3089
▁associated	-3090
▁miles	-3091
▁jul	-3092
▁silver	-3093
cing	-3094
▁jumped	-3095
▁grass	-3096
▁wand	-3097
▁bell	-3098
▁existence	-3099
▁der	-3100
▁pound	-3101
▁unless	-3102
▁worried	-3103
▁market	-3104
▁anti	-3105
attered	-3106
▁animal	-3107
▁fathers	-3108
rie	-3109
▁proper	-3110
▁handle	-3111
▁mission	-3112
▁agreed	-3113
▁conc	-3114
▁tur	-3115
▁sell	-3116
▁turns	-3117
▁wol	-3118
lished	-3119
▁nar	-3120
▁write	-3121
▁gentle	-3122
ols	-3123
▁length	-3124
▁manage	-3125
▁entrance	-3126
▁grad	-3127
▁fool	-3128
osis	-3129
▁date	-3130
▁locked	-3131
▁aim	-3132
illed	-3133
xic	-3134
iate	-3135
▁adam	-3136
▁ourselves	-3137
▁prepared	-3138
▁value	-3139
▁missing	-3140
▁shel	-3141
▁putting	-3142
lo	-3143
tt	-3144
yal	-3145
▁freed	-3146
▁beast	-3147
▁condition	-3148
ems	-3149
▁paused	-3150
▁mountain	-3151
▁private	-3152
▁meat	-3153
aches	-3154
▁rod	-3155
▁belief	-3156
dy	-3157
▁total	-3158
mas	-3159
▁language	-3160
▁crazy	-3161
▁smoke	-3162
▁vir	-3163
▁practice	-3164
▁pleasure	-3165
▁broad	-3166
▁benef	-3167
▁laid	-3168
▁slid	-3169
▁east	-3170
▁promise	-3171
▁apparently	-3172
▁disp	-3173
asons	-3174
▁increased	-3175
▁answered	-3176
▁prec	-3177
▁lunch	-3178
ius	-3179
ingly	-3180
▁uns	-3181
▁stuck	-3182
▁united	-3183
ibility	-3184
▁summer	-3185
▁fund	-3186
▁shoot	-3187
▁besides	-3188
▁host	-3189
▁civil	-3190
▁confir	-3191
for	-3192
au	-3193
▁opposite	-3194
▁fuck	-3195
▁community	-3196
▁quar	-3197
▁universe	-3198
rop	-3199
▁gray	-3200
iment	-3201
▁aside	-3202
ulf	-3203
▁brothers	-3204
▁sides	-3205
▁bear	-3206
▁captain	-3207
▁propert	-3208
▁gotten	-3209
rit	-3210
▁sighed	-3211
▁),	-3212
▁sir	-3213
▁wip	-3214
▁changes	-3215
anda	-3216
▁train	-3217
▁princ	-3218
▁kingdom	-3219
▁demonstr	-3220
ios	-3221
fast	-3222
▁drop	-3223
▁join	-3224
▁bathroom	-3225
▁ens	-3226
▁guards	-3227
oured	-3228
ification	-3229
▁village	-3230
▁scene	-3231
▁creature	-3232
ading	-3233
nds	-3234
ica	-3235
▁kissed	-3236
▁flight	-3237
▁que	-3238
inary	-3239
gar	-3240
▁russ	-3241
icient	-3242
▁spell	-3243
▁cheek	-3244
▁isra	-3245
▁sha	-3246
▁required	-3247
rated	-3248
▁lung	-3249
▁becoming	-3250
▁ancient	-3251
tain	-3252
▁flu	-3253
▁ash	-3254
imate	-3255
▁calling	-3256
▁bob	-3257
ding	-3258
▁mart	-3259
▁frank	-3260
▁fed	-3261
▁hill	-3262
▁eur	-3263
▁wooden	-3264
▁weapons	-3265
▁slipped	-3266
▁hanging	-3267
▁intellig	-3268
▁ride	-3269
▁breathing	-3270
▁opt	-3271
▁hous	-3272
▁discovered	-3273
▁science	-3274
▁text	-3275
▁faces	-3276
▁letter	-3277
▁weapon	-3278
▁parts	-3279
riend	-3280
anged	-3281
▁mothers	-3282
▁happening	-3283
▁flying	-3284
▁slam	-3285
▁heads	-3286
▁yellow	-3287
leep	-3288
▁million	-3289
▁charl	-3290
▁medic	-3291
▁club	-3292
▁etern	-3293
▁definitely	-3294
▁studies	-3295
▁circum	-3296
▁row	-3297
▁survival	-3298
▁compet	-3299
▁cit	-3300
iven	-3301
▁asleep	-3302
▁learning	-3303
▁shape	-3304
▁hate	-3305
lec	-3306
athered	-3307
unately	-3308
▁source	-3309
▁arent	-3310
▁pu	-3311
▁arch	-3312
▁approached	-3313
▁environment	-3314
▁spo	-3315
▁actions	-3316
omb	-3317
rid	-3318
▁consciousness	-3319
▁sounded	-3320
▁hearing	-3321
▁leaders	-3322
ym	-3323
▁quietly	-3324
▁scar	-3325
▁uncle	-3326
▁tos	-3327
▁memories	-3328
▁journey	-3329
▁instruct	-3330
▁mix	-3331
▁unable	-3332
lin	-3333
▁trail	-3334
▁creatures	-3335
cher	-3336
nel	-3337
otions	-3338
▁express	-3339
▁groups	-3340
▁joined	-3341
▁lin	-3342
▁officer	-3343
▁greater	-3344
ship	-3345
▁mary	-3346
▁shaking	-3347
▁dreams	-3348
▁israel	-3349
▁missed	-3350
▁removed	-3351
▁leaves	-3352
▁significant	-3353
▁hotel	-3354
▁driving	-3355
▁react	-3356
friend	-3357
▁fallen	-3358
▁fish	-3359
▁shadow	-3360
roud	-3361
▁otherwise	-3362
▁dance	-3363
▁pieces	-3364
▁difference	-3365
iving	-3366
▁sweat	-3367
ivity	-3368
▁gene	-3369
▁novel	-3370
▁prior	-3371
fl	-3372
aur	-3373
▁mirror	-3374
▁ell	-3375
▁emp	-3376
ya	-3377
▁dangerous	-3378
▁block	-3379
▁mort	-3380
▁teaching	-3381
▁cases	-3382
▁burning	-3383
▁enemy	-3384
▁crossed	-3385
▁letting	-3386
▁possibly	-3387
▁disappeared	-3388
wor	-3389
▁pure	-3390
▁vo	-3391
▁encou	-3392
▁loose	-3393
▁recall	-3394
▁pin	-3395
▁sen	-3396
▁noise	-3397
▁aunt	-3398
cil	-3399
igg	-3400
▁sleeping	-3401
▁impact	-3402
▁hers	-3403
▁gather	-3404
▁por	-3405
ores	-3406
▁shared	-3407
▁plans	-3408
▁shock	-3409
aming	-3410
ament	-3411
▁exte	-3412
▁knife	-3413
▁decl	-3414
▁gives	-3415
▁settled	-3416
ancy	-3417
▁push	-3418
vere	-3419
▁determined	-3420
ague	-3421
▁comfortable	-3422
▁amb	-3423
▁crew	-3424
▁tone	-3425
▁names	-3426
▁plat	-3427
▁ghost	-3428
▁president	-3429
▁lat	-3430
▁whispered	-3431
▁squee	-3432
▁rare	-3433
▁emotions	-3434
fr	-3435
▁cred	-3436
▁revealed	-3437
▁effective	-3438
▁burst	-3439
▁pool	-3440
▁disease	-3441
atures	-3442
ifer	-3443
▁elev	-3444
▁regular	-3445
▁jim	-3446
▁eld	-3447
▁frequ	-3448
▁concept	-3449
▁deg	-3450
▁breakfast	-3451
uted	-3452
▁tan	-3453
▁percent	-3454
▁emerg	-3455
▁eating	-3456
▁leather	-3457
▁developed	-3458
▁choose	-3459
▁lip	-3460
▁religious	-3461
▁instit	-3462
inted	-3463
▁jan	-3464
▁apprec	-3465
▁concerned	-3466
▁dirt	-3467
isters	-3468
▁wake	-3469
▁anx	-3470
▁lock	-3471
▁flash	-3472
▁beach	-3473
oted	-3474
▁purch	-3475
▁related	-3476
▁bottle	-3477
▁gift	-3478
▁gas	-3479
▁progress	-3480
▁assist	-3481
▁analy	-3482
yr	-3483
den	-3484
▁task	-3485
▁hallway	-3486
ule	-3487
▁gab	-3488
▁genes	-3489
▁ult	-3490
▁nobody	-3491
▁terror	-3492
onscious	-3493
▁manner	-3494
▁freedom	-3495
▁interested	-3496
▁cars	-3497
▁hyp	-3498
▁english	-3499
▁prete	-3500
▁pill	-3501
▁prevent	-3502
osen	-3503
▁unb	-3504
▁pra	-3505
▁shell	-3506
▁liter	-3507
▁taught	-3508
▁relief	-3509
▁prayer	-3510
▁wheel	-3511
board	-3512
▁solid	-3513
cho	-3514
▁na	-3515
▁effects	-3516
▁smiling	-3517
▁peter	-3518
▁listening	-3519
▁gasp	-3520
▁charge	-3521
▁showing	-3522
▁fucking	-3523
▁surely	-3524
ounced	-3525
▁mentioned	-3526
▁ah	-3527
▁exh	-3528
uction	-3529
▁hug	-3530
▁dear	-3531
alu	-3532
▁focused	-3533
▁species	-3534
▁circle	-3535
▁figured	-3536
agn	-3537
▁ct	-3538
ograph	-3539
▁waist	-3540
▁dna	-3541
▁happens	-3542
▁wealth	-3543
▁tour	-3544
▁treated	-3545
▁leader	-3546
▁pattern	-3547
▁adult	-3548
▁sav	-3549
▁frown	-3550
▁interesting	-3551
▁passing	-3552
▁hors	-3553
▁wonderful	-3554
▁shown	-3555
▁provided	-3556
▁golden	-3557
▁machine	-3558
▁feels	-3559
▁interv	-3560
▁nervous	-3561
▁boat	-3562
▁ren	-3563
iah	-3564
mer	-3565
▁tent	-3566
▁samples	-3567
▁rise	-3568
▁polic	-3569
▁unfort	-3570
▁lake	-3571
▁acqu	-3572
ucked	-3573
pe	-3574
▁wave	-3575
▁observed	-3576
▁attend	-3577
▁garden	-3578
cr	-3579
▁kr	-3580
▁wine	-3581
▁saved	-3582
aging	-3583
▁scri	-3584
▁youd	-3585
▁checked	-3586
▁du	-3587
▁nearby	-3588
ushing	-3589
▁evolution	-3590
▁laws	-3591
▁rand	-3592
▁swall	-3593
▁details	-3594
pan	-3595
▁subst	-3596
▁iron	-3597
▁safet	-3598
▁cabin	-3599
▁tit	-3600
▁scared	-3601
▁domin	-3602
ulate	-3603
▁gest	-3604
▁grey	-3605
▁theory	-3606
▁marriage	-3607
▁political	-3608
▁increase	-3609
▁naked	-3610
▁shower	-3611
eds	-3612
▁judge	-3613
▁minds	-3614
▁series	-3615
▁scan	-3616
ocr	-3617
▁wondering	-3618
▁strate	-3619
icious	-3620
▁religion	-3621
▁tear	-3622
▁safety	-3623
stairs	-3624
▁double	-3625
tle	-3626
▁rough	-3627
▁pit	-3628
▁represent	-3629
ker	-3630
▁tumors	-3631
▁address	-3632
▁frame	-3633
▁laughing	-3634
▁negative	-3635
▁insp	-3636
▁blond	-3637
▁unlike	-3638
▁technology	-3639
▁background	-3640
▁wanting	-3641
▁innoc	-3642
▁streets	-3643
▁stars	-3644
▁smooth	-3645
ta	-3646
▁rot	-3647
▁terms	-3648
▁mac	-3649
▁failed	-3650
▁struck	-3651
▁pale	-3652
ole	-3653
▁clinical	-3654
▁highly	-3655
▁jac	-3656
▁section	-3657
▁fro	-3658
▁wear	-3659
▁mental	-3660
icted	-3661
cin	-3662
▁throw	-3663
▁methods	-3664
▁gathered	-3665
tering	-3666
▁transl	-3667
▁pressure	-3668
▁damage	-3669
▁wes	-3670
▁drift	-3671
▁accepted	-3672
▁easier	-3673
▁council	-3674
▁chuck	-3675
▁race	-3676
▁flew	-3677
▁wrote	-3678
▁carrying	-3679
▁named	-3680
▁setting	-3681
▁magn	-3682
▁exha	-3683
▁wished	-3684
▁systems	-3685
▁gal	-3686
▁murder	-3687
▁recept	-3688
antage	-3689
▁circumst	-3690
otic	-3691
▁receive	-3692
ogen	-3693
▁cele	-3694
gu	-3695
▁jess	-3696
▁decide	-3697
▁ideas	-3698
▁grasp	-3699
▁obl	-3700
ki	-3701
▁nod	-3702
ura	-3703
▁symb	-3704
▁flow	-3705
uls	-3706
▁protein	-3707
▁stro	-3708
▁citiz	-3709
▁roof	-3710
▁craw	-3711
▁beauty	-3712
▁shield	-3713
▁younger	-3714
▁formed	-3715
▁rapid	-3716
▁profession	-3717
▁massive	-3718
▁helen	-3719
▁script	-3720
▁dragon	-3721
▁rum	-3722
▁pad	-3723
▁issue	-3724
▁particularly	-3725
lessly	-3726
▁distract	-3727
▁member	-3728
▁range	-3729
▁admit	-3730
▁immun	-3731
▁proud	-3732
icles	-3733
▁hardly	-3734
▁repeated	-3735
▁content	-3736
▁blade	-3737
▁killing	-3738
▁grown	-3739
▁tiss	-3740
▁signs	-3741
▁german	-3742
▁aband	-3743
▁bought	-3744
▁larger	-3745
▁frust	-3746
▁evalu	-3747
▁numbers	-3748
▁original	-3749
▁oce	-3750
▁reasons	-3751
▁shadows	-3752
▁anywhere	-3753
▁chin	-3754
▁bat	-3755
▁surrounded	-3756
▁careful	-3757
▁worst	-3758
▁modern	-3759
▁points	-3760
▁resour	-3761
key	-3762
▁celebr	-3763
▁reaching	-3764
▁agree	-3765
▁horses	-3766
▁totally	-3767
▁bent	-3768
▁occup	-3769
min	-3770
book	-3771
▁population	-3772
▁finish	-3773
▁purs	-3774
gest	-3775
▁sigh	-3776
asy	-3777
▁former	-3778
ese	-3779
iant	-3780
▁prefer	-3781
▁sequ	-3782
▁perfectly	-3783
▁vac	-3784
▁countries	-3785
▁heading	-3786
▁europe	-3787
▁accident	-3788
▁ceiling	-3789
▁fren	-3790
▁remains	-3791
▁thousands	-3792
lled	-3793
▁pleas	-3794
▁everywhere	-3795
▁daily	-3796
▁excited	-3797
▁tea	-3798
▁spring	-3799
▁released	-3800
▁planned	-3801
▁lucky	-3802
▁pink	-3803
che	-3804
mp	-3805
▁grip	-3806
▁copy	-3807
▁york	-3808
▁tells	-3809
▁recently	-3810
▁helping	-3811
▁tv	-3812
▁relative	-3813
▁twice	-3814
▁ordered	-3815
pet	-3816
ox	-3817
▁forgotten	-3818
▁rules	-3819
house	-3820
▁writ	-3821
▁william	-3822
▁taste	-3823
▁tradition	-3824
▁fought	-3825
▁shoes	-3826
▁exper	-3827
▁enjoyed	-3828
▁serve	-3829
▁greet	-3830
▁forehead	-3831
mon	-3832
bb	-3833
ev	-3834
▁aver	-3835
▁trave	-3836
▁reminded	-3837
▁rate	-3838
ects	-3839
zing	-3840
▁hated	-3841
▁exch	-3842
▁vide	-3843
ales	-3844
▁movie	-3845
ada	-3846
aries	-3847
▁jon	-3848
▁fol	-3849
▁false	-3850
▁sne	-3851
▁labor	-3852
under	-3853
cle	-3854
▁colon	-3855
▁listened	-3856
▁contrib	-3857
▁seek	-3858
▁blow	-3859
▁inner	-3860
▁pd	-3861
▁teen	-3862
▁bridge	-3863
▁shouldnt	-3864
▁sexual	-3865
▁climbed	-3866
▁behavior	-3867
▁queen	-3868
acks	-3869
gers	-3870
▁alt	-3871
▁glance	-3872
▁plate	-3873
oying	-3874
▁coat	-3875
▁ron	-3876
▁forces	-3877
▁becomes	-3878
▁plant	-3879
▁deeply	-3880
▁transform	-3881
▁mike	-3882
▁sarah	-3883
▁consequ	-3884
▁ken	-3885
asis	-3886
rate	-3887
▁pushing	-3888
inging	-3889
▁pants	-3890
▁waves	-3891
orted	-3892
▁opin	-3893
▁meas	-3894
▁shows	-3895
▁ry	-3896
▁molec	-3897
▁vehicle	-3898
▁terrible	-3899
iveness	-3900
▁cock	-3901
▁temper	-3902
▁square	-3903
▁combination	-3904
▁faster	-3905
▁stare	-3906
▁cham	-3907
▁lif	-3908
▁famil	-3909
▁giant	-3910
olic	-3911
▁warri	-3912
▁disappoint	-3913
▁narrow	-3914
▁discip	-3915
▁reaction	-3916
▁pil	-3917
ails	-3918
▁jaw	-3919
▁bul	-3920
▁refused	-3921
▁smart	-3922
antic	-3923
▁nine	-3924
▁media	-3925
▁las	-3926
▁libr	-3927
▁george	-3928
▁goal	-3929
▁brand	-3930
▁vit	-3931
▁refer	-3932
▁require	-3933
▁couch	-3934
▁promised	-3935
▁areas	-3936
omfort	-3937
▁buildings	-3938
▁concern	-3939
▁property	-3940
▁meal	-3941
▁beings	-3942
▁experienced	-3943
arrass	-3944
▁causing	-3945
isions	-3946
▁entirely	-3947
epend	-3948
▁woke	-3949
what	-3950
▁department	-3951
▁embarrass	-3952
uous	-3953
▁aust	-3954
▁cryst	-3955
▁century	-3956
umped	-3957
▁remaining	-3958
▁jam	-3959
▁matt	-3960
▁bol	-3961
▁incred	-3962
▁restaur	-3963
▁wings	-3964
▁powers	-3965
▁america	-3966
▁pier	-3967
nes	-3968
▁thor	-3969
istry	-3970
▁hero	-3971
▁bless	-3972
rel	-3973
▁fault	-3974
▁hiding	-3975
▁metast	-3976
▁page	-3977
▁indust	-3978
▁whenever	-3979
inal	-3980
eg	-3981
▁driver	-3982
▁faced	-3983
▁daniel	-3984
lies	-3985
▁bay	-3986
▁nur	-3987
▁issues	-3988
▁resistance	-3989
▁landed	-3990
▁jake	-3991
▁ju	-3992
▁crying	-3993
▁screamed	-3994
▁kar	-3995
▁education	-3996
osing	-3997
▁bone	-3998
▁rooms	-3999
▁chosen	-4000
▁suffering	-4001
▁smaller	-4002
▁ros	-4003
▁parking	-4004
▁confused	-4005
▁aid	-4006
ashion	-4007
▁request	-4008
▁liqu	-4009
▁ships	-4010
▁identified	-4011
▁gon	-4012
▁temple	-4013
▁calls	-4014
▁drawn	-4015
▁screaming	-4016
▁quality	-4017
gment	-4018
ka	-4019
▁display	-4020
▁breaking	-4021
▁favorite	-4022
▁bringing	-4023
omas	-4024
▁fright	-4025
▁instinct	-4026
▁woods	-4027
▁steel	-4028
▁hesit	-4029
▁cheeks	-4030
▁wolf	-4031
▁desce	-4032
izz	-4033
▁suggested	-4034
▁recognized	-4035
▁rights	-4036
▁burned	-4037
▁release	-4038
▁isl	-4039
▁kat	-4040
▁wid	-4041
iday	-4042
▁pictures	-4043
▁fant	-4044
▁dawn	-4045
ads	-4046
▁nav	-4047
▁clouds	-4048
▁lap	-4049
rences	-4050
▁excl	-4051
▁marc	-4052
amm	-4053
ucle	-4054
▁appearance	-4055
▁mi	-4056
▁radio	-4057
atives	-4058
▁comment	-4059
▁embr	-4060
▁plus	-4061
▁included	-4062
▁hearts	-4063
ga	-4064
▁tub	-4065
▁answers	-4066
▁prove	-4067
▁facing	-4068
▁stretched	-4069
igned	-4070
▁christmas	-4071
encing	-4072
▁prost	-4073
▁amazing	-4074
▁balance	-4075
▁independ	-4076
▁knock	-4077
oph	-4078
▁passion	-4079
wood	-4080
▁duty	-4081
▁nic	-4082
▁structure	-4083
▁ocean	-4084
acle	-4085
▁winter	-4086
ault	-4087
▁button	-4088
▁mood	-4089
▁chief	-4090
▁price	-4091
▁rang	-4092
▁cart	-4093
▁unif	-4094
▁authority	-4095
▁tend	-4096
▁losing	-4097
▁twisted	-4098
▁performed	-4099
▁weather	-4100
que	-4101
▁surrounding	-4102
▁intense	-4103
▁desert	-4104
▁sund	-4105
▁fashion	-4106
▁accompl	-4107
▁vall	-4108
gs	-4109
▁cried	-4110
▁families	-4111
▁encount	-4112
▁creation	-4113
▁measure	-4114
lied	-4115
▁etc	-4116
▁echo	-4117
▁tip	-4118
▁forms	-4119
▁match	-4120
▁hey	-4121
▁nut	-4122
ena	-4123
▁screw	-4124
▁jeans	-4125
alk	-4126
oles	-4127
▁tail	-4128
▁instantly	-4129
▁searching	-4130
▁financ	-4131
da	-4132
inist	-4133
▁unkn	-4134
ishment	-4135
▁connection	-4136
▁beer	-4137
▁items	-4138
▁sending	-4139
▁bother	-4140
▁culture	-4141
▁holl	-4142
▁responsible	-4143
▁services	-4144
▁rac	-4145
vey	-4146
▁orif	-4147
▁particip	-4148
▁rule	-4149
▁glob	-4150
▁fifty	-4151
iance	-4152
▁recent	-4153
▁bind	-4154
▁till	-4155
▁review	-4156
▁bond	-4157
▁ba	-4158
▁eric	-4159
▁games	-4160
▁autom	-4161
▁fab	-4162
▁ven	-4163
▁conditions	-4164
▁jacket	-4165
▁virt	-4166
▁contract	-4167
▁rising	-4168
▁sons	-4169
▁houses	-4170
▁primary	-4171
itors	-4172
▁sees	-4173
rom	-4174
rog	-4175
▁fruit	-4176
▁advantage	-4177
▁mice	-4178
▁features	-4179
▁cow	-4180
ivered	-4181
▁restr	-4182
▁officers	-4183
ibly	-4184
▁absolutely	-4185
imately	-4186
▁height	-4187
▁western	-4188
▁waved	-4189
▁harder	-4190
▁studied	-4191
▁models	-4192
ams	-4193
▁proceed	-4194
▁merely	-4195
▁collect	-4196
▁blast	-4197
▁christians	-4198
▁significantly	-4199
uries	-4200
▁ya	-4201
lement	-4202
▁cave	-4203
▁rushed	-4204
▁stress	-4205
▁antic	-4206
▁plane	-4207
▁nights	-4208
▁connect	-4209
hens	-4210
▁drinking	-4211
vin	-4212
mission	-4213
▁luke	-4214
▁tied	-4215
▁loving	-4216
▁micro	-4217
▁weeke	-4218
▁dirty	-4219
▁washing	-4220
▁imagined	-4221
▁butt	-4222
▁uniform	-4223
▁increasing	-4224
uch	-4225
▁softly	-4226
▁multiple	-4227
▁buck	-4228
▁gut	-4229
▁orders	-4230
bl	-4231
▁afric	-4232
▁separate	-4233
▁yester	-4234
▁sacrif	-4235
▁trick	-4236
▁warning	-4237
han	-4238
▁fate	-4239
▁brit	-4240
▁budd	-4241
▁teach	-4242
▁altern	-4243
▁disappear	-4244
▁josh	-4245
▁exec	-4246
▁conduct	-4247
▁planning	-4248
vert	-4249
▁changing	-4250
▁claw	-4251
uments	-4252
▁international	-4253
▁influence	-4254
▁drugs	-4255
▁hundreds	-4256
▁unfortunately	-4257
▁ox	-4258
▁happiness	-4259
▁bord	-4260
eps	-4261
egr	-4262
▁spin	-4263
▁divine	-4264
▁welcome	-4265
▁circumstances	-4266
▁lots	-4267
▁official	-4268
▁discover	-4269
aret	-4270
isa	-4271
▁limited	-4272
▁worlds	-4273
▁boots	-4274
cs	-4275
▁unw	-4276
▁extremely	-4277
▁dying	-4278
▁rat	-4279
▁yesterday	-4280
▁agent	-4281
▁kicked	-4282
org	-4283
▁ethan	-4284
▁exerc	-4285
nal	-4286
▁fifteen	-4287
▁princip	-4288
▁diss	-4289
▁types	-4290
▁upset	-4291
▁doorway	-4292
bi	-4293
▁chose	-4294
iring	-4295
aned	-4296
▁suppose	-4297
▁decre	-4298
▁transport	-4299
▁rear	-4300
▁protection	-4301
▁prol	-4302
▁gain	-4303
▁central	-4304
▁survive	-4305
▁map	-4306
▁mountains	-4307
▁oil	-4308
▁boss	-4309
▁nick	-4310
▁panic	-4311
▁intent	-4312
▁flood	-4313
▁actual	-4314
▁quant	-4315
▁standard	-4316
know	-4317
▁whisper	-4318
▁instant	-4319
▁shake	-4320
omed	-4321
▁activities	-4322
▁wedding	-4323
▁immune	-4324
▁thrust	-4325
▁birds	-4326
▁cook	-4327
▁served	-4328
▁contain	-4329
▁muscles	-4330
mit	-4331
▁thinks	-4332
opt	-4333
▁enh	-4334
▁style	-4335
illy	-4336
▁cro	-4337
▁sisters	-4338
▁carl	-4339
▁slept	-4340
ubb	-4341
▁consid	-4342
ette	-4343
▁constant	-4344
▁conce	-4345
cell	-4346
▁rib	-4347
▁destroyed	-4348
▁emer	-4349
▁status	-4350
▁glo	-4351
rs	-4352
▁lies	-4353
▁deeper	-4354
▁region	-4355
▁ly	-4356
▁described	-4357
▁overw	-4358
▁passage	-4359
▁somewhat	-4360
▁ray	-4361
▁rush	-4362
▁upper	-4363
▁tightly	-4364
▁nucle	-4365
ald	-4366
▁shouted	-4367
jected	-4368
▁reported	-4369
▁established	-4370
▁site	-4371
▁clut	-4372
▁nation	-4373
▁horiz	-4374
▁interp	-4375
▁palm	-4376
eph	-4377
▁connected	-4378
▁persons	-4379
iest	-4380
▁season	-4381
ffic	-4382
▁kings	-4383
▁weird	-4384
▁tort	-4385
omm	-4386
eping	-4387
▁glow	-4388
▁tick	-4389
▁emotional	-4390
▁successful	-4391
▁dozen	-4392
▁ment	-4393
aken	-4394
eled	-4395
▁fier	-4396
utions	-4397
▁resc	-4398
▁robert	-4399
▁myst	-4400
▁worship	-4401
illing	-4402
ulating	-4403
▁justice	-4404
asm	-4405
▁location	-4406
▁mistake	-4407
▁chain	-4408
▁excit	-4409
▁waste	-4410
▁capable	-4411
▁plenty	-4412
hold	-4413
▁jap	-4414
▁scen	-4415
▁cig	-4416
ij	-4417
▁spect	-4418
▁ate	-4419
▁skills	-4420
▁plastic	-4421
▁ast	-4422
ww	-4423
▁plain	-4424
ooked	-4425
▁grim	-4426
▁wisdom	-4427
▁bree	-4428
▁alien	-4429
▁constantly	-4430
▁joe	-4431
▁prin	-4432
▁normally	-4433
▁distur	-4434
iber	-4435
▁crime	-4436
▁chat	-4437
arian	-4438
▁applic	-4439
▁overwhel	-4440
ulous	-4441
vision	-4442
▁explan	-4443
▁possess	-4444
elve	-4445
icing	-4446
▁deck	-4447
▁calc	-4448
eline	-4449
▁bigger	-4450
▁regret	-4451
▁bud	-4452
▁fer	-4453
▁rocks	-4454
▁achieve	-4455
▁distant	-4456
▁fulf	-4457
imp	-4458
uded	-4459
▁castle	-4460
▁theyll	-4461
▁sport	-4462
oop	-4463
▁furn	-4464
▁laughter	-4465
▁demons	-4466
▁murd	-4467
▁mc	-4468
▁split	-4469
▁pleased	-4470
aly	-4471
▁challenge	-4472
pri	-4473
▁profess	-4474
▁lond	-4475
▁improve	-4476
▁twelve	-4477
umbling	-4478
▁shift	-4479
pap	-4480
hest	-4481
▁video	-4482
▁ak	-4483
▁basic	-4484
▁honor	-4485
ours	-4486
▁une	-4487
▁clothing	-4488
▁les	-4489
ora	-4490
▁french	-4491
▁seriously	-4492
▁acknow	-4493
agon	-4494
ulations	-4495
▁electric	-4496
oh	-4497
eal	-4498
▁angels	-4499
▁orange	-4500
▁funny	-4501
▁shrugged	-4502
▁excitement	-4503
▁cha	-4504
▁advent	-4505
▁flowers	-4506
▁images	-4507
▁soil	-4508
▁swung	-4509
▁recognize	-4510
▁unknown	-4511
▁therapy	-4512
▁administ	-4513
▁voices	-4514
▁prophe	-4515
▁revel	-4516
▁thigh	-4517
▁expert	-4518
▁knocked	-4519
▁ax	-4520
▁platform	-4521
▁dogs	-4522
inn	-4523
▁vast	-4524
▁sevent	-4525
▁egg	-4526
iot	-4527
▁yours	-4528
▁jay	-4529
▁gall	-4530
▁closing	-4531
▁stir	-4532
▁starts	-4533
▁swim	-4534
▁consist	-4535
▁stronger	-4536
▁paint	-4537
▁vib	-4538
▁beth	-4539
▁ignored	-4540
▁scrat	-4541
▁delight	-4542
oms	-4543
▁aspect	-4544
▁emph	-4545
▁confidence	-4546
▁stands	-4547
▁relie	-4548
▁peoples	-4549
▁spoken	-4550
▁element	-4551
▁student	-4552
uf	-4553
▁bio	-4554
▁driven	-4555
.)	-4556
▁wil	-4557
ware	-4558
▁designed	-4559
▁forty	-4560
▁leaning	-4561
▁ber	-4562
ira	-4563
mar	-4564
▁bones	-4565
▁possibility	-4566
▁ms	-4567
▁philos	-4568
▁sect	-4569
vis	-4570
▁intended	-4571
▁resources	-4572
▁allowing	-4573
▁nowhere	-4574
▁ling	-4575
▁yard	-4576
▁passen	-4577
▁scent	-4578
▁sof	-4579
▁returning	-4580
▁matters	-4581
▁anticip	-4582
▁internet	-4583
▁silently	-4584
ino	-4585
▁spark	-4586
▁conclusion	-4587
▁interview	-4588
▁cu	-4589
▁ow	-4590
▁slee	-4591
vation	-4592
▁identify	-4593
umin	-4594
▁unique	-4595
▁foreign	-4596
▁financial	-4597
▁degree	-4598
atically	-4599
▁library	-4600
▁liber	-4601
▁vampire	-4602
▁diagn	-4603
elled	-4604
▁buried	-4605
va	-4606
▁fist	-4607
▁victor	-4608
▁trade	-4609
athan	-4610
▁japan	-4611
▁individuals	-4612
▁charlie	-4613
▁creating	-4614
▁responsibility	-4615
erves	-4616
▁drawing	-4617
▁parked	-4618
▁wise	-4619
▁china	-4620
▁partner	-4621
▁staying	-4622
▁neighbor	-4623
▁glory	-4624
▁average	-4625
yer	-4626
▁corrid	-4627
▁convin	-4628
▁citizens	-4629
ett	-4630
▁restaurant	-4631
▁youth	-4632
▁gle	-4633
▁corpor	-4634
▁fellow	-4635
▁colored	-4636
overy	-4637
▁assumed	-4638
▁efforts	-4639
using	-4640
▁stun	-4641
▁bon	-4642
▁pile	-4643
pted	-4644
▁pride	-4645
▁medicine	-4646
▁equip	-4647
▁guilt	-4648
▁camera	-4649
▁viv	-4650
▁anna	-4651
▁pace	-4652
ache	-4653
▁avo	-4654
▁bread	-4655
▁mob	-4656
▁benefit	-4657
▁faint	-4658
▁capital	-4659
abor	-4660
▁appropri	-4661
anch	-4662
▁bloody	-4663
▁consum	-4664
▁statement	-4665
uary	-4666
▁prophet	-4667
▁shifted	-4668
▁accompan	-4669
▁arrest	-4670
▁occurred	-4671
▁speech	-4672
▁won	-4673
▁snapped	-4674
lying	-4675
▁awake	-4676
▁thrown	-4677
▁chick	-4678
▁mum	-4679
verse	-4680
▁confl	-4681
▁convinced	-4682
▁slammed	-4683
▁narr	-4684
▁scientific	-4685
▁hungry	-4686
ares	-4687
▁struggled	-4688
▁cash	-4689
▁pregn	-4690
▁phen	-4691
▁useful	-4692
▁currently	-4693
father	-4694
▁blur	-4695
▁guide	-4696
isms	-4697
▁eve	-4698
▁eager	-4699
▁spotted	-4700
▁accur	-4701
▁popular	-4702
ander	-4703
▁cleared	-4704
▁deliver	-4705
▁notes	-4706
▁previously	-4707
▁grate	-4708
▁souls	-4709
▁interrupt	-4710
▁pant	-4711
▁dragged	-4712
▁london	-4713
tained	-4714
▁stated	-4715
izes	-4716
▁explos	-4717
▁gang	-4718
▁rif	-4719
▁frag	-4720
▁hips	-4721
▁afford	-4722
▁global	-4723
▁chairs	-4724
▁tossed	-4725
hol	-4726
▁via	-4727
▁drunk	-4728
▁healing	-4729
▁advanced	-4730
oll	-4731
riel	-4732
▁legal	-4733
iable	-4734
▁royal	-4735
▁intr	-4736
▁blame	-4737
▁career	-4738
▁greatest	-4739
▁version	-4740
▁considering	-4741
▁nations	-4742
▁birthday	-4743
▁uncomfort	-4744
▁alco	-4745
▁rent	-4746
▁devil	-4747
▁landing	-4748
▁weekend	-4749
ints	-4750
inese	-4751
eut	-4752
▁traffic	-4753
▁fired	-4754
ded	-4755
▁valley	-4756
▁flames	-4757
▁senses	-4758
▁letters	-4759
raft	-4760
▁healthy	-4761
▁hurried	-4762
▁everybody	-4763
▁fixed	-4764
▁limit	-4765
▁assess	-4766
▁scott	-4767
▁television	-4768
igen	-4769
urally	-4770
▁credit	-4771
▁lowered	-4772
▁raise	-4773
▁include	-4774
▁equipment	-4775
athy	-4776
▁appoint	-4777
anna	-4778
ado	-4779
▁sched	-4780
▁apolog	-4781
▁glasses	-4782
▁eternal	-4783
▁humanity	-4784
▁rail	-4785
▁rolling	-4786
▁blanket	-4787
▁cris	-4788
▁begins	-4789
▁manif	-4790
▁chinese	-4791
▁intelligence	-4792
▁pul	-4793
▁compar	-4794
isc	-4795
▁innocent	-4796
▁musl	-4797
time	-4798
▁gonna	-4799
▁geo	-4800
▁jews	-4801
▁henry	-4802
rier	-4803
▁eyed	-4804
▁opinion	-4805
▁pointing	-4806
▁strike	-4807
▁warmth	-4808
▁soph	-4809
▁qual	-4810
▁attached	-4811
▁knee	-4812
reek	-4813
▁chann	-4814
ipe	-4815
olved	-4816
idents	-4817
▁appears	-4818
▁expecting	-4819
▁clock	-4820
umps	-4821
▁spun	-4822
▁crimin	-4823
▁jun	-4824
erson	-4825
▁joseph	-4826
▁chamber	-4827
▁betr	-4828
▁code	-4829
rant	-4830
▁spirits	-4831
▁grav	-4832
▁poured	-4833
ii	-4834
▁faded	-4835
▁iv	-4836
▁gif	-4837
▁sem	-4838
▁exposed	-4839
▁covering	-4840
▁excuse	-4841
▁cott	-4842
▁marry	-4843
▁dancing	-4844
▁crystal	-4845
▁belt	-4846
▁jason	-4847
▁economic	-4848
urance	-4849
rified	-4850
▁thomas	-4851
gression	-4852
▁heavily	-4853
▁generally	-4854
▁kick	-4855
▁ing	-4856
▁yan	-4857
eous	-4858
▁papers	-4859
▁extended	-4860
▁od	-4861
▁depth	-4862
▁worn	-4863
▁tables	-4864
▁cru	-4865
▁persp	-4866
▁integr	-4867
▁histor	-4868
▁wrist	-4869
▁visible	-4870
▁additional	-4871
▁prince	-4872
▁intention	-4873
▁option	-4874
▁leads	-4875
▁contem	-4876
acked	-4877
inks	-4878
▁tissue	-4879
▁mutations	-4880
▁sink	-4881
▁sunday	-4882
bur	-4883
usive	-4884
▁twist	-4885
▁dian	-4886
▁liquid	-4887
▁satur	-4888
▁breeze	-4889
ram	-4890
unched	-4891
▁unus	-4892
▁throwing	-4893
▁values	-4894
▁desperate	-4895
▁torn	-4896
▁ease	-4897
ucks	-4898
ato	-4899
▁nin	-4900
▁newspap	-4901
▁coast	-4902
▁proof	-4903
raw	-4904
▁sed	-4905
▁jeff	-4906
▁numer	-4907
▁ignore	-4908
▁paying	-4909
▁sout	-4910
vant	-4911
▁ped	-4912
▁unit	-4913
▁inch	-4914
▁constit	-4915
ket	-4916
▁observ	-4917
kward	-4918
▁replaced	-4919
aping	-4920
▁stones	-4921
▁stiff	-4922
▁tunnel	-4923
▁core	-4924
▁determine	-4925
▁craft	-4926
sing	-4927
▁awkward	-4928
eding	-4929
▁thumb	-4930
▁rubbed	-4931
rete	-4932
▁atm	-4933
▁unex	-4934
▁vent	-4935
ris	-4936
ille	-4937
▁regarding	-4938
ucing	-4939
▁closely	-4940
▁stair	-4941
▁gosp	-4942
ectively	-4943
ses	-4944
▁file	-4945
eness	-4946
▁valid	-4947
▁performance	-4948
▁owner	-4949
▁steady	-4950
▁random	-4951
▁fred	-4952
back	-4953
▁fan	-4954
phone	-4955
▁tempor	-4956
▁generation	-4957
▁plants	-4958
▁dollars	-4959
▁recomm	-4960
▁rage	-4961
▁si	-4962
mother	-4963
▁struggle	-4964
▁reveal	-4965
▁orifice	-4966
▁cous	-4967
▁therapeut	-4968
agged	-4969
▁stock	-4970
▁affect	-4971
▁remove	-4972
▁rit	-4973
▁basis	-4974
▁overall	-4975
▁acting	-4976
▁ignor	-4977
lling	-4978
▁shocked	-4979
▁football	-4980
bow	-4981
▁rested	-4982
met	-4983
▁ere	-4984
▁reduced	-4985
stand	-4986
▁trib	-4987
▁breathe	-4988
ront	-4989
▁bitter	-4990
oe	-4991
▁islam	-4992
bel	-4993
▁stab	-4994
▁priest	-4995
▁secure	-4996
▁journal	-4997
▁amongst	-4998
▁unconscious	-4999
▁professional	-5000
▁judgment	-5001
▁ward	-5002
▁unto	-5003
▁forgive	-5004
▁sole	-5005
▁sust	-5006
▁lic	-5007
cast	-5008
▁skull	-5009
▁produced	-5010
▁intellect	-5011
▁defend	-5012
▁signaling	-5013
ril	-5014
▁eliz	-5015
ocol	-5016
▁witch	-5017
▁commit	-5018
neath	-5019
▁continues	-5020
▁pour	-5021
▁badly	-5022
▁ali	-5023
▁unp	-5024
mbled	-5025
▁span	-5026
▁horror	-5027
jo	-5028
▁habit	-5029
▁surre	-5030
▁underneath	-5031
▁slip	-5032
▁relaxed	-5033
▁loves	-5034
▁surprising	-5035
kind	-5036
▁agreement	-5037
▁link	-5038
ounce	-5039
resp	-5040
▁acts	-5041
▁disg	-5042
▁advice	-5043
▁jean	-5044
▁spending	-5045
lyn	-5046
▁friendly	-5047
▁utter	-5048
▁produce	-5049
▁bite	-5050
▁workers	-5051
▁bags	-5052
▁production	-5053
field	-5054
do	-5055
▁wash	-5056
▁centre	-5057
▁breasts	-5058
▁painful	-5059
▁arrange	-5060
▁experiences	-5061
▁guil	-5062
osure	-5063
▁collaps	-5064
▁gigg	-5065
de	-5066
usions	-5067
▁curious	-5068
▁ara	-5069
▁theyve	-5070
▁transfer	-5071
▁device	-5072
▁management	-5073
▁cere	-5074
▁critical	-5075
▁touching	-5076
▁elevator	-5077
▁jacob	-5078
▁ends	-5079
▁india	-5080
▁ec	-5081
itable	-5082
▁assay	-5083
▁monster	-5084
▁active	-5085
▁eg	-5086
▁decisions	-5087
▁suffer	-5088
icate	-5089
▁richard	-5090
▁explanation	-5091
▁volunt	-5092
▁confusion	-5093
▁conflict	-5094
vest	-5095
▁gradu	-5096
▁bast	-5097
▁guilty	-5098
▁decor	-5099
▁hamm	-5100
▁manifest	-5101
istan	-5102
▁vess	-5103
▁fields	-5104
ember	-5105
▁destruction	-5106
▁shame	-5107
point	-5108
▁jobs	-5109
▁dw	-5110
▁retrie	-5111
▁os	-5112
▁sins	-5113
▁tower	-5114
ros	-5115
▁inches	-5116
▁somebody	-5117
▁unn	-5118
▁encoura	-5119
▁wiped	-5120
▁teachers	-5121
▁asse	-5122
▁minim	-5123
▁mit	-5124
mo	-5125
▁begun	-5126
▁dread	-5127
▁confirmed	-5128
▁induced	-5129
▁soldier	-5130
▁whoever	-5131
▁righteous	-5132
▁satan	-5133
▁yelled	-5134
▁cloth	-5135
▁cos	-5136
▁bang	-5137
▁stopping	-5138
ums	-5139
▁minor	-5140
▁guns	-5141
▁isol	-5142
ua	-5143
▁ug	-5144
▁grave	-5145
▁firmly	-5146
▁enorm	-5147
▁confident	-5148
▁godd	-5149
▁cliff	-5150
▁courage	-5151
agger	-5152
▁expand	-5153
▁protest	-5154
▁attacked	-5155
▁cher	-5156
▁ga	-5157
▁enjoying	-5158
▁cale	-5159
▁thir	-5160
▁confront	-5161
ops	-5162
▁keys	-5163
▁presented	-5164
▁mig	-5165
▁hood	-5166
▁mercy	-5167
▁offering	-5168
▁majority	-5169
ission	-5170
▁distinct	-5171
▁sensitive	-5172
▁bench	-5173
▁kin	-5174
▁branc	-5175
▁aug	-5176
▁grinned	-5177
▁il	-5178
▁hast	-5179
rehens	-5180
▁packed	-5181
▁lun	-5182
▁ram	-5183
▁cooper	-5184
▁belly	-5185
▁establish	-5186
▁purple	-5187
▁lone	-5188
▁cream	-5189
▁fas	-5190
▁seeking	-5191
▁arrive	-5192
▁construct	-5193
▁assum	-5194
▁flowing	-5195
▁maintain	-5196
▁sadd	-5197
▁clar	-5198
▁ank	-5199
▁wing	-5200
▁dece	-5201
rating	-5202
▁insisted	-5203
▁precious	-5204
▁vul	-5205
otyp	-5206
▁adjust	-5207
▁appropriate	-5208
▁virgin	-5209
▁transcri	-5210
▁located	-5211
▁pee	-5212
▁tie	-5213
▁walks	-5214
▁pathway	-5215
▁abandoned	-5216
▁attitude	-5217
ml	-5218
▁swift	-5219
▁incident	-5220
▁canc	-5221
▁agents	-5222
▁doctors	-5223
▁az	-5224
▁exit	-5225
▁strang	-5226
▁invis	-5227
▁violence	-5228
▁honey	-5229
▁fourth	-5230
▁initial	-5231
▁internal	-5232
orter	-5233
▁expressed	-5234
▁directions	-5235
▁blonde	-5236
▁approaching	-5237
▁homes	-5238
▁tools	-5239
▁washed	-5240
▁invited	-5241
▁entertain	-5242
otherap	-5243
▁purchase	-5244
▁shaft	-5245
▁contained	-5246
▁brill	-5247
▁awareness	-5248
▁defense	-5249
▁sab	-5250
▁lee	-5251
▁handsome	-5252
▁briefly	-5253
▁sake	-5254
▁enemies	-5255
▁routine	-5256
▁uncomfortable	-5257
▁realised	-5258
▁potent	-5259
▁emily	-5260
▁keeps	-5261
▁franc	-5262
▁hurry	-5263
▁grateful	-5264
▁predict	-5265
▁magaz	-5266
▁grandfather	-5267
▁sliding	-5268
▁audience	-5269
hetic	-5270
▁compound	-5271
▁trained	-5272
▁grandmother	-5273
▁stranger	-5274
▁responded	-5275
▁reward	-5276
osphere	-5277
▁ded	-5278
can	-5279
▁lined	-5280
▁excell	-5281
▁communication	-5282
▁resting	-5283
▁causes	-5284
▁ensure	-5285
▁rapidly	-5286
acles	-5287
ifying	-5288
omp	-5289
uk	-5290
ras	-5291
▁sensation	-5292
▁jenny	-5293
place	-5294
▁clo	-5295
aim	-5296
▁shade	-5297
▁fabric	-5298
▁rab	-5299
hell	-5300
▁realm	-5301
▁saving	-5302
▁shaped	-5303
▁perspective	-5304
▁picking	-5305
bie	-5306
adem	-5307
▁pleasant	-5308
▁exhausted	-5309
nie	-5310
▁dart	-5311
▁cycle	-5312
▁interact	-5313
▁myster	-5314
▁swallowed	-5315
▁armed	-5316
▁frozen	-5317
▁glor	-5318
eling	-5319
▁pros	-5320
▁importance	-5321
▁introduced	-5322
▁rust	-5323
▁moves	-5324
▁lovely	-5325
▁settle	-5326
▁dun	-5327
▁kinds	-5328
ok	-5329
▁trial	-5330
▁trem	-5331
▁union	-5332
▁climb	-5333
▁bot	-5334
▁absor	-5335
▁failure	-5336
▁millions	-5337
▁democr	-5338
▁dining	-5339
▁demonstrated	-5340
▁austral	-5341
▁lightning	-5342
rick	-5343
▁mes	-5344
▁pages	-5345
▁garage	-5346
▁impress	-5347
▁satisfied	-5348
▁eyebr	-5349
ban	-5350
itched	-5351
▁tool	-5352
▁informed	-5353
▁searched	-5354
▁mixed	-5355
▁imagination	-5356
thy	-5357
▁ske	-5358
▁princess	-5359
acity	-5360
▁mouse	-5361
▁bru	-5362
▁tough	-5363
▁extent	-5364
▁inhibition	-5365
▁expensive	-5366
▁riding	-5367
▁bor	-5368
▁tang	-5369
▁waters	-5370
▁detect	-5371
▁collection	-5372
▁roman	-5373
▁dur	-5374
▁charles	-5375
▁supply	-5376
▁brush	-5377
lor	-5378
▁glowing	-5379
▁equal	-5380
hers	-5381
▁shore	-5382
▁naturally	-5383
▁cared	-5384
▁kim	-5385
▁corridor	-5386
▁reference	-5387
put	-5388
pa	-5389
▁rope	-5390
▁envelop	-5391
▁numerous	-5392
▁desperately	-5393
▁knight	-5394
▁fairly	-5395
▁convince	-5396
▁painted	-5397
▁frowned	-5398
▁distrib	-5399
▁compass	-5400
▁reluct	-5401
ss	-5402
▁tension	-5403
▁piss	-5404
▁route	-5405
▁alcohol	-5406
▁perce	-5407
▁succeed	-5408
hi	-5409
hus	-5410
▁runs	-5411
▁intens	-5412
▁branches	-5413
▁stan	-5414
▁veget	-5415
▁flashed	-5416
uses	-5417
▁asks	-5418
▁factor	-5419
▁antib	-5420
▁elder	-5421
▁thunder	-5422
▁lind	-5423
elle	-5424
▁amanda	-5425
▁assume	-5426
▁horrible	-5427
▁ridic	-5428
inity	-5429
pected	-5430
▁porch	-5431
sters	-5432
▁concrete	-5433
▁classes	-5434
▁contrast	-5435
ugs	-5436
▁sob	-5437
▁claimed	-5438
alous	-5439
▁phase	-5440
▁correl	-5441
▁exchange	-5442
▁nurse	-5443
▁academ	-5444
▁seated	-5445
▁spar	-5446
▁eco	-5447
▁collected	-5448
▁ladies	-5449
▁traditional	-5450
▁mate	-5451
▁solution	-5452
▁greg	-5453
▁poison	-5454
▁sought	-5455
▁quarter	-5456
uine	-5457
▁puzz	-5458
▁egy	-5459
▁dang	-5460
▁scattered	-5461
▁upstairs	-5462
▁hay	-5463
▁escaped	-5464
aren	-5465
▁web	-5466
▁verse	-5467
▁policy	-5468
▁prolifer	-5469
▁symbol	-5470
▁elements	-5471
▁swept	-5472
▁bowl	-5473
▁reply	-5474
▁relieved	-5475
▁studying	-5476
▁rick	-5477
▁ego	-5478
▁wiz	-5479
▁fence	-5480
▁neare	-5481
▁girlfriend	-5482
▁emerged	-5483
▁tucked	-5484
▁stem	-5485
▁organization	-5486
▁sufficient	-5487
▁perman	-5488
▁article	-5489
▁folded	-5490
▁severe	-5491
▁lands	-5492
▁saturday	-5493
▁hi	-5494
▁highest	-5495
▁rode	-5496
▁british	-5497
▁brushed	-5498
▁unexpected	-5499
▁discussion	-5500
▁exercise	-5501
▁gospel	-5502
▁marks	-5503
▁nan	-5504
▁nd	-5505
▁effic	-5506
▁boyfriend	-5507
▁fog	-5508
▁independent	-5509
▁hind	-5510
▁owners	-5511
coming	-5512
▁holds	-5513
▁hasnt	-5514
▁signal	-5515
fall	-5516
▁troub	-5517
rain	-5518
▁reports	-5519
▁victory	-5520
▁admitted	-5521
▁invisible	-5522
▁kate	-5523
▁noted	-5524
▁salvation	-5525
win	-5526
▁gn	-5527
mark	-5528
▁famous	-5529
▁butter	-5530
▁describe	-5531
▁cav	-5532
ero	-5533
▁instr	-5534
▁inqu	-5535
▁therapeutic	-5536
omic	-5537
▁bunch	-5538
agers	-5539
unted	-5540
▁clearing	-5541
abeth	-5542
▁lungs	-5543
▁checking	-5544
ford	-5545
▁cub	-5546
▁harry	-5547
down	-5548
▁volume	-5549
▁distr	-5550
▁bullet	-5551
▁haw	-5552
▁shoved	-5553
▁essential	-5554
ext	-5555
▁unusual	-5556
▁jane	-5557
▁guests	-5558
▁genuine	-5559
osition	-5560
▁shooting	-5561
▁jewish	-5562
▁factors	-5563
▁raw	-5564
▁existed	-5565
▁childhood	-5566
▁march	-5567
bor	-5568
▁emergency	-5569
▁literally	-5570
▁professor	-5571
▁mand	-5572
▁engage	-5573
▁vampires	-5574
▁gasped	-5575
▁prepare	-5576
▁clen	-5577
char	-5578
▁lamp	-5579
lar	-5580
▁pig	-5581
▁beating	-5582
roph	-5583
▁suffe	-5584
▁falls	-5585
▁egypt	-5586
▁reass	-5587
▁nuclear	-5588
▁stumbled	-5589
ona	-5590
▁moral	-5591
▁occasionally	-5592
▁whos	-5593
▁relationships	-5594
▁enormous	-5595
▁revelation	-5596
amin	-5597
▁flame	-5598
▁arrival	-5599
▁complic	-5600
▁applied	-5601
▁mud	-5602
▁stal	-5603
▁precise	-5604
mbling	-5605
▁skill	-5606
▁lesson	-5607
▁testing	-5608
▁punishment	-5609
▁airport	-5610
▁milk	-5611
▁shopping	-5612
▁isa	-5613
▁backed	-5614
▁souther	-5615
▁trapped	-5616
▁candid	-5617
▁combined	-5618
▁ordinary	-5619
▁squeezed	-5620
▁suspected	-5621
▁cheer	-5622
▁personally	-5623
▁rhy	-5624
▁univ	-5625
encies	-5626
▁calif	-5627
▁permission	-5628
▁loyal	-5629
▁hills	-5630
▁gabriel	-5631
▁ira	-5632
▁properly	-5633
▁ian	-5634
irts	-5635
▁annoy	-5636
attle	-5637
▁tender	-5638
▁scrap	-5639
▁kissing	-5640
▁network	-5641
sp	-5642
▁russian	-5643
▁commander	-5644
▁marked	-5645
▁reven	-5646
bon	-5647
▁tap	-5648
▁crown	-5649
otherapy	-5650
▁diam	-5651
rig	-5652
uits	-5653
▁womans	-5654
▁loudly	-5655
onent	-5656
▁marg	-5657
▁bac	-5658
▁earn	-5659
▁cities	-5660
▁sharing	-5661
ula	-5662
▁californ	-5663
▁mile	-5664
ece	-5665
▁superior	-5666
▁nik	-5667
▁magical	-5668
▁victim	-5669
▁sacrifice	-5670
iter	-5671
▁blessed	-5672
▁servants	-5673
▁genetic	-5674
▁deri	-5675
▁barn	-5676
▁embrace	-5677
ahs	-5678
case	-5679
▁grade	-5680
▁nest	-5681
▁philosop	-5682
rial	-5683
▁neat	-5684
▁backwards	-5685
▁dependent	-5686
▁gathering	-5687
▁dare	-5688
issions	-5689
▁mail	-5690
▁manip	-5691
▁fuel	-5692
▁endless	-5693
nas	-5694
▁ripped	-5695
▁percept	-5696
▁brad	-5697
▁buzz	-5698
▁argument	-5699
▁melt	-5700
▁pow	-5701
▁subc	-5702
▁withd	-5703
▁curse	-5704
▁appreciate	-5705
lan	-5706
▁identity	-5707
▁interpret	-5708
▁vari	-5709
▁suspect	-5710
ules	-5711
▁palace	-5712
▁elizabeth	-5713
▁melan	-5714
▁struggling	-5715
ste	-5716
▁guid	-5717
▁brings	-5718
▁yards	-5719
▁investigation	-5720
▁entering	-5721
olve	-5722
rous	-5723
▁income	-5724
▁closet	-5725
▁charged	-5726
▁dismiss	-5727
▁encourage	-5728
▁blew	-5729
▁bitch	-5730
▁motor	-5731
▁facts	-5732
▁completed	-5733
▁cheap	-5734
▁diet	-5735
oops	-5736
▁til	-5737
▁dealing	-5738
▁deliber	-5739
▁strategy	-5740
▁tested	-5741
▁biggest	-5742
▁immediate	-5743
▁entry	-5744
eria	-5745
iture	-5746
ublic	-5747
▁alert	-5748
▁cutting	-5749
▁throne	-5750
▁sunlight	-5751
▁filling	-5752
▁singing	-5753
▁curt	-5754
▁ted	-5755
ida	-5756
▁proced	-5757
ctions	-5758
▁billy	-5759
die	-5760
▁abilities	-5761
▁drivers	-5762
mitted	-5763
oul	-5764
nic	-5765
▁atmosphere	-5766
acion	-5767
oning	-5768
ari	-5769
issa	-5770
▁indian	-5771
ston	-5772
▁sup	-5773
oting	-5774
▁alter	-5775
▁prime	-5776
▁inev	-5777
▁proved	-5778
▁visited	-5779
▁attempted	-5780
ita	-5781
▁scale	-5782
▁products	-5783
▁dwell	-5784
▁rig	-5785
▁abrupt	-5786
▁marcus	-5787
▁suffered	-5788
imm	-5789
oded	-5790
▁array	-5791
▁instructions	-5792
▁assault	-5793
▁urge	-5794
▁operation	-5795
▁cyt	-5796
▁figures	-5797
▁mask	-5798
▁motiv	-5799
▁experim	-5800
▁dull	-5801
▁players	-5802
▁mechanism	-5803
▁enthus	-5804
▁dug	-5805
▁pist	-5806
▁jealous	-5807
▁suspic	-5808
▁hopefully	-5809
▁movements	-5810
▁online	-5811
▁dropping	-5812
▁exhib	-5813
▁ending	-5814
▁derived	-5815
rol	-5816
▁alley	-5817
▁southern	-5818
▁drinks	-5819
▁assured	-5820
▁overcome	-5821
▁carol	-5822
enses	-5823
▁strateg	-5824
▁chase	-5825
▁ric	-5826
▁context	-5827
▁hitting	-5828
▁remark	-5829
▁grant	-5830
▁fiction	-5831
gging	-5832
▁sensed	-5833
▁electron	-5834
▁sets	-5835
▁delivered	-5836
rations	-5837
▁empire	-5838
▁merc	-5839
▁kell	-5840
▁england	-5841
▁physically	-5842
see	-5843
oming	-5844
▁supplies	-5845
off	-5846
▁heels	-5847
▁panel	-5848
▁nurs	-5849
azz	-5850
▁cass	-5851
▁colors	-5852
umn	-5853
ashes	-5854
ughters	-5855
▁combat	-5856
▁institute	-5857
eler	-5858
istics	-5859
▁desires	-5860
▁scientists	-5861
▁toler	-5862
▁swear	-5863
▁switch	-5864
▁california	-5865
▁ari	-5866
▁fears	-5867
▁dried	-5868
▁owned	-5869
▁rh	-5870
▁overl	-5871
▁dragons	-5872
aph	-5873
iating	-5874
▁alarm	-5875
▁believers	-5876
bby	-5877
▁mexic	-5878
▁shortly	-5879
▁detective	-5880
thew	-5881
▁controlled	-5882
▁smiles	-5883
▁regardless	-5884
▁muscle	-5885
▁friday	-5886
▁reject	-5887
▁coven	-5888
▁feared	-5889
▁subs	-5890
▁recon	-5891
▁vivo	-5892
▁blocks	-5893
▁foolish	-5894
▁schools	-5895
▁curled	-5896
▁lightly	-5897
▁matthew	-5898
▁consequences	-5899
▁louis	-5900
▁records	-5901
▁friendship	-5902
▁differences	-5903
▁seats	-5904
▁wicked	-5905
▁options	-5906
▁obey	-5907
▁mystery	-5908
ini	-5909
▁dod	-5910
▁andrew	-5911
▁excellent	-5912
▁tam	-5913
▁tony	-5914
▁serge	-5915
▁thread	-5916
▁separated	-5917
▁goodby	-5918
▁thorough	-5919
▁committed	-5920
esis	-5921
▁hint	-5922
▁grabbing	-5923
▁advance	-5924
▁announced	-5925
gered	-5926
steps	-5927
▁coup	-5928
while	-5929
▁basket	-5930
▁aggress	-5931
▁string	-5932
▁molecular	-5933
▁binding	-5934
▁progression	-5935
▁floating	-5936
▁stim	-5937
▁boxes	-5938
▁oblig	-5939
▁horizon	-5940
▁slide	-5941
▁attractive	-5942
▁gifts	-5943
▁valu	-5944
kin	-5945
▁ugly	-5946
▁alternative	-5947
eter	-5948
▁sensit	-5949
craft	-5950
▁spine	-5951
▁rein	-5952
▁border	-5953
▁ryan	-5954
▁unh	-5955
▁hunting	-5956
▁damp	-5957
▁harsh	-5958
▁silly	-5959
lers	-5960
▁lan	-5961
▁gates	-5962
▁ni	-5963
▁marsh	-5964
▁washington	-5965
▁senior	-5966
▁republic	-5967
▁stall	-5968
▁gear	-5969
mn	-5970
▁outer	-5971
▁selfish	-5972
▁uses	-5973
▁cath	-5974
▁kh	-5975
▁smelled	-5976
▁symp	-5977
▁targets	-5978
▁lucy	-5979
▁sooner	-5980
▁fart	-5981
▁reflection	-5982
▁rifle	-5983
▁companies	-5984
▁ham	-5985
greg	-5986
▁parties	-5987
▁raced	-5988
▁disciples	-5989
▁examined	-5990
ench	-5991
▁vel	-5992
▁sheep	-5993
▁eh	-5994
▁prosp	-5995
tical	-5996
▁messages	-5997
▁trap	-5998
attering	-5999
▁lor	-6000
chers	-6001
▁centuries	-6002
▁foundation	-6003
▁blaz	-6004
▁chaos	-6005
▁violent	-6006
▁daughters	-6007
▁pressing	-6008
▁uncertain	-6009
▁collapsed	-6010
▁lux	-6011
uled	-6012
outs	-6013
▁um	-6014
▁impression	-6015
▁obst	-6016
▁variety	-6017
▁sway	-6018
▁tank	-6019
erable	-6020
▁inher	-6021
▁smith	-6022
▁clan	-6023
▁flick	-6024
▁photo	-6025
▁placing	-6026
osph	-6027
▁whod	-6028
▁ps	-6029
▁disbel	-6030
▁lifet	-6031
▁exception	-6032
▁fox	-6033
▁indicated	-6034
▁rarely	-6035
▁seed	-6036
▁intim	-6037
▁spare	-6038
▁upright	-6039
▁awa	-6040
▁hugged	-6041
otes	-6042
▁nap	-6043
▁inhibitor	-6044
▁sel	-6045
▁behavi	-6046
▁customers	-6047
tr	-6048
▁lust	-6049
▁draft	-6050
▁estate	-6051
▁contempl	-6052
▁warned	-6053
▁recip	-6054
▁bun	-6055
▁branch	-6056
▁victims	-6057
▁oct	-6058
▁cruc	-6059
▁coinc	-6060
▁tracks	-6061
▁stead	-6062
▁raising	-6063
▁volunte	-6064
▁directed	-6065
gl	-6066
▁sheet	-6067
▁practically	-6068
▁bars	-6069
▁pulls	-6070
▁collective	-6071
ppy	-6072
▁drank	-6073
▁arranged	-6074
tor	-6075
▁pause	-6076
▁frustration	-6077
▁published	-6078
any	-6079
▁parad	-6080
▁pregnant	-6081
▁util	-6082
▁teams	-6083
▁mos	-6084
▁sofa	-6085
▁champ	-6086
▁thy	-6087
▁drown	-6088
▁anybody	-6089
▁anxiety	-6090
▁trusted	-6091
▁folks	-6092
▁moses	-6093
▁remote	-6094
▁mont	-6095
▁rescue	-6096
▁confirm	-6097
▁cards	-6098
▁disgust	-6099
▁fu	-6100
▁ting	-6101
▁explore	-6102
▁trigg	-6103
▁amy	-6104
▁immort	-6105
▁instance	-6106
▁dial	-6107
▁org	-6108
▁revealing	-6109
otted	-6110
▁equally	-6111
▁cops	-6112
▁diane	-6113
▁dick	-6114
▁witnesses	-6115
▁contents	-6116
▁scanned	-6117
ordin	-6118
▁caut	-6119
▁formation	-6120
▁insist	-6121
▁drifted	-6122
▁ihr	-6123
▁lur	-6124
▁flower	-6125
▁downstairs	-6126
wing	-6127
▁defin	-6128
▁tas	-6129
ortion	-6130
▁startled	-6131
▁absence	-6132
▁concentration	-6133
▁threatened	-6134
▁intelligent	-6135
▁partners	-6136
▁adventure	-6137
▁minister	-6138
uge	-6139
▁compassion	-6140
▁finds	-6141
▁burden	-6142
▁onc	-6143
▁hopes	-6144
▁alright	-6145
▁cancers	-6146
rian	-6147
▁pond	-6148
▁killer	-6149
▁beliefs	-6150
▁furniture	-6151
▁bomb	-6152
▁crash	-6153
▁acid	-6154
▁warriors	-6155
ibl	-6156
▁polite	-6157
▁prepar	-6158
▁territ	-6159
▁district	-6160
▁catching	-6161
▁joke	-6162
▁holes	-6163
▁barb	-6164
▁holly	-6165
▁film	-6166
▁industry	-6167
▁tore	-6168
▁photos	-6169
▁highway	-6170
▁weakness	-6171
▁itll	-6172
▁gazed	-6173
▁servant	-6174
▁sentence	-6175
▁ministry	-6176
▁specifically	-6177
▁rhyth	-6178
▁defined	-6179
▁emissions	-6180
▁martin	-6181
▁cracked	-6182
▁americans	-6183
▁newspaper	-6184
▁tests	-6185
▁tempt	-6186
elling	-6187
▁hunter	-6188
▁stops	-6189
▁construction	-6190
▁movies	-6191
▁association	-6192
▁personality	-6193
omy	-6194
▁load	-6195
▁characters	-6196
force	-6197
stone	-6198
▁stepping	-6199
▁peered	-6200
▁proliferation	-6201
ping	-6202
▁gradually	-6203
▁prev	-6204
▁neighborhood	-6205
▁chocol	-6206
▁sits	-6207
umping	-6208
▁arrow	-6209
▁provides	-6210
▁incredible	-6211
▁metab	-6212
▁vulner	-6213
▁simon	-6214
clock	-6215
▁survived	-6216
▁jail	-6217
▁soot	-6218
▁sized	-6219
arant	-6220
itches	-6221
▁cleaning	-6222
▁steve	-6223
▁affected	-6224
▁penet	-6225
▁armor	-6226
walk	-6227
▁lev	-6228
▁slowed	-6229
▁choices	-6230
▁wounds	-6231
▁protected	-6232
▁htt	-6233
▁hid	-6234
▁som	-6235
▁prayed	-6236
▁swing	-6237
ila	-6238
▁useless	-6239
inked	-6240
och	-6241
▁selected	-6242
▁jenn	-6243
▁gripped	-6244
▁serving	-6245
▁temperature	-6246
uish	-6247
▁dyn	-6248
▁tale	-6249
▁testament	-6250
▁sara	-6251
▁chemical	-6252
▁chuckled	-6253
▁repair	-6254
▁illeg	-6255
▁hem	-6256
arette	-6257
▁capacity	-6258
▁player	-6259
▁ka	-6260
▁discussed	-6261
▁likes	-6262
▁warrior	-6263
ige	-6264
▁continuing	-6265
▁loaded	-6266
▁relatively	-6267
▁dram	-6268
▁prostate	-6269
▁driveway	-6270
▁document	-6271
▁attacks	-6272
▁iraq	-6273
▁awful	-6274
▁sniff	-6275
▁primitive	-6276
rors	-6277
▁brick	-6278
▁pounding	-6279
▁commerc	-6280
onic	-6281
▁france	-6282
▁brilliant	-6283
▁respectively	-6284
▁schol	-6285
▁ancest	-6286
▁believing	-6287
▁.,	-6288
▁oclock	-6289
▁decades	-6290
za	-6291
▁vitro	-6292
▁requires	-6293
▁bern	-6294
ecess	-6295
▁objects	-6296
▁poly	-6297
▁snat	-6298
▁trunk	-6299
▁greed	-6300
▁vehicles	-6301
▁cigarette	-6302
▁footsteps	-6303
▁carpet	-6304
iosity	-6305
roc	-6306
▁forb	-6307
▁frightened	-6308
▁furthermore	-6309
▁divor	-6310
▁landsc	-6311
▁preparing	-6312
▁casual	-6313
▁extract	-6314
▁forcing	-6315
▁tomm	-6316
▁realizing	-6317
▁frequently	-6318
▁bored	-6319
▁proteins	-6320
▁fluid	-6321
▁honestly	-6322
▁pm	-6323
▁outcome	-6324
▁breathed	-6325
▁bike	-6326
iration	-6327
▁manager	-6328
▁ze	-6329
▁sales	-6330
▁sant	-6331
▁claims	-6332
▁memor	-6333
▁amber	-6334
alt	-6335
▁title	-6336
irk	-6337
▁campa	-6338
asty	-6339
▁math	-6340
▁subsequ	-6341
▁stor	-6342
▁norther	-6343
▁exists	-6344
▁involve	-6345
▁towel	-6346
amped	-6347
▁latest	-6348
ux	-6349
▁stretch	-6350
▁pec	-6351
▁temp	-6352
▁patterns	-6353
▁cate	-6354
▁dumb	-6355
atural	-6356
atin	-6357
inent	-6358
▁assign	-6359
ata	-6360
col	-6361
▁deny	-6362
rolled	-6363
▁tries	-6364
▁brow	-6365
▁guessed	-6366
▁anxious	-6367
aneously	-6368
▁blocked	-6369
▁interrupted	-6370
▁brian	-6371
fs	-6372
▁salt	-6373
▁implic	-6374
▁scripture	-6375
▁shining	-6376
olen	-6377
▁tab	-6378
▁tex	-6379
▁tray	-6380
▁popped	-6381
▁lod	-6382
inger	-6383
▁valuable	-6384
▁africa	-6385
▁webs	-6386
▁urg	-6387
▁fet	-6388
▁pillow	-6389
alem	-6390
rees	-6391
▁activation	-6392
ani	-6393
▁francis	-6394
▁ninet	-6395
▁adults	-6396
▁fleet	-6397
ds	-6398
▁knocking	-6399
▁newly	-6400
▁halfway	-6401
▁kit	-6402
▁allows	-6403
▁crou	-6404
▁blinked	-6405
▁tay	-6406
▁outl	-6407
▁seemingly	-6408
▁apost	-6409
▁interaction	-6410
▁apopt	-6411
▁criminal	-6412
bra	-6413
▁panc	-6414
▁neur	-6415
▁sample	-6416
▁remembering	-6417
▁brave	-6418
▁controls	-6419
▁conqu	-6420
▁peaceful	-6421
ressing	-6422
▁ignoring	-6423
▁flor	-6424
▁illumin	-6425
▁developing	-6426
mic	-6427
▁shuff	-6428
▁toile	-6429
▁closest	-6430
▁chris	-6431
▁murm	-6432
▁curiosity	-6433
▁lifting	-6434
▁secrets	-6435
lands	-6436
▁swir	-6437
ecca	-6438
▁gran	-6439
▁atl	-6440
▁slave	-6441
▁ritual	-6442
▁gap	-6443
▁subtle	-6444
▁passenger	-6445
▁email	-6446
▁recommend	-6447
▁spinning	-6448
▁disappointed	-6449
▁abra	-6450
▁bart	-6451
▁collar	-6452
▁publ	-6453
uster	-6454
▁cad	-6455
▁selling	-6456
▁photograph	-6457
▁suic	-6458
▁resur	-6459
lla	-6460
▁qur	-6461
▁greeted	-6462
▁dil	-6463
▁supported	-6464
▁injured	-6465
▁inhibitors	-6466
▁emma	-6467
▁vague	-6468
▁flipped	-6469
▁ii	-6470
▁skirt	-6471
▁jere	-6472
fire	-6473
▁boot	-6474
▁dave	-6475
▁lege	-6476
onents	-6477
▁eaten	-6478
▁quarters	-6479
▁flag	-6480
▁discovery	-6481
▁bapt	-6482
▁sports	-6483
aying	-6484
▁application	-6485
▁captured	-6486
aron	-6487
▁reflected	-6488
uces	-6489
gf	-6490
▁hence	-6491
▁guarant	-6492
▁drops	-6493
▁lisa	-6494
▁grief	-6495
▁terrified	-6496
inations	-6497
▁sheets	-6498
izations	-6499
▁august	-6500
▁ultimately	-6501
▁belonged	-6502
▁bothered	-6503
▁dripping	-6504
▁painting	-6505
li	-6506
▁granted	-6507
▁cel	-6508
▁reaches	-6509
nings	-6510
unate	-6511
▁puts	-6512
▁recru	-6513
▁strip	-6514
▁interests	-6515
▁feather	-6516
▁eastern	-6517
▁optim	-6518
▁retire	-6519
▁kisses	-6520
▁preferred	-6521
▁vin	-6522
iques	-6523
▁benefits	-6524
itate	-6525
▁silk	-6526
▁dism	-6527
▁experiment	-6528
▁exhaust	-6529
▁gem	-6530
ville	-6531
▁deserve	-6532
▁attempts	-6533
▁basement	-6534
alled	-6535
▁impl	-6536
▁argue	-6537
▁praise	-6538
▁encounter	-6539
▁beard	-6540
▁assigned	-6541
▁wherever	-6542
mes	-6543
tes	-6544
▁dish	-6545
▁unre	-6546
▁colour	-6547
▁fists	-6548
▁northern	-6549
▁phosph	-6550
▁smoking	-6551
▁eru	-6552
▁circles	-6553
▁goodbye	-6554
▁insight	-6555
▁lessons	-6556
▁occupied	-6557
▁kyle	-6558
▁measured	-6559
▁mall	-6560
▁decent	-6561
▁lifetime	-6562
▁eggs	-6563
▁typical	-6564
ws	-6565
▁syn	-6566
▁alice	-6567
▁stunned	-6568
▁aven	-6569
▁mond	-6570
▁shouting	-6571
▁comparison	-6572
gun	-6573
like	-6574
▁hello	-6575
▁covers	-6576
rey	-6577
▁guest	-6578
▁cooking	-6579
▁goddess	-6580
▁situations	-6581
▁cord	-6582
▁jerus	-6583
▁bush	-6584
▁costs	-6585
▁krist	-6586
▁safely	-6587
▁aint	-6588
▁revolution	-6589
nda	-6590
▁handful	-6591
▁aged	-6592
kins	-6593
▁lonely	-6594
vering	-6595
▁conven	-6596
▁basically	-6597
mates	-6598
▁possessed	-6599
▁conference	-6600
▁visual	-6601
▁backs	-6602
▁fake	-6603
▁yield	-6604
▁blessing	-6605
▁impressed	-6606
▁overhead	-6607
▁declared	-6608
▁affection	-6609
▁wire	-6610
▁snake	-6611
▁nich	-6612
▁torture	-6613
enn	-6614
▁providing	-6615
bc	-6616
▁adding	-6617
▁wandered	-6618
stream	-6619
aning	-6620
▁aimed	-6621
▁fantasy	-6622
▁subconscious	-6623
fare	-6624
▁cousin	-6625
▁campaign	-6626
▁limits	-6627
▁estim	-6628
▁mysterious	-6629
▁forgiveness	-6630
▁authors	-6631
vas	-6632
mond	-6633
▁moreover	-6634
▁susan	-6635
▁acceler	-6636
▁chocolate	-6637
▁sorts	-6638
▁diamond	-6639
▁receiving	-6640
erie	-6641
▁stable	-6642
▁billion	-6643
nis	-6644
▁obsc	-6645
▁software	-6646
▁rachel	-6647
▁speaks	-6648
▁debt	-6649
▁apply	-6650
▁commercial	-6651
▁corn	-6652
▁myth	-6653
mare	-6654
isher	-6655
▁danny	-6656
▁towns	-6657
▁backp	-6658
▁haz	-6659
▁shiver	-6660
▁adem	-6661
▁sucked	-6662
▁climate	-6663
▁eternity	-6664
▁sergeant	-6665
▁employees	-6666
▁favour	-6667
▁clay	-6668
▁shelter	-6669
▁sandw	-6670
▁helps	-6671
▁troops	-6672
▁portion	-6673
▁bubb	-6674
icians	-6675
▁recover	-6676
▁ages	-6677
▁reprod	-6678
ilst	-6679
of	-6680
▁relevant	-6681
▁lily	-6682
uke	-6683
▁whereas	-6684
▁wounded	-6685
▁investigate	-6686
▁wrap	-6687
▁embarrassed	-6688
▁targeted	-6689
▁formal	-6690
▁chances	-6691
ario	-6692
▁masters	-6693
▁counsel	-6694
icated	-6695
▁traveling	-6696
▁gorge	-6697
▁pilot	-6698
▁trace	-6699
▁midnight	-6700
▁surroundings	-6701
▁phr	-6702
▁sail	-6703
▁roads	-6704
ocy	-6705
▁threatening	-6706
▁claws	-6707
▁screams	-6708
▁signed	-6709
▁invasion	-6710
irm	-6711
▁gown	-6712
▁bost	-6713
▁limbs	-6714
▁alph	-6715
▁cursed	-6716
▁rubbing	-6717
▁dip	-6718
▁tact	-6719
▁linked	-6720
▁gained	-6721
▁eag	-6722
▁chill	-6723
oto	-6724
▁maria	-6725
▁hook	-6726
▁anth	-6727
▁vio	-6728
parent	-6729
▁kne	-6730
▁sugar	-6731
▁traveled	-6732
▁vanished	-6733
▁dimension	-6734
utation	-6735
lights	-6736
▁hunger	-6737
▁nightmare	-6738
▁jerusalem	-6739
▁acted	-6740
mod	-6741
▁swords	-6742
ago	-6743
▁jar	-6744
▁nearest	-6745
▁balls	-6746
ae	-6747
▁lane	-6748
▁aliens	-6749
▁conver	-6750
▁sneak	-6751
▁dow	-6752
▁zone	-6753
▁waking	-6754
oster	-6755
▁assass	-6756
▁wouldve	-6757
▁reduce	-6758
▁investment	-6759
▁inspect	-6760
ymph	-6761
aine	-6762
▁tatt	-6763
▁gravity	-6764
▁climbing	-6765
▁pretend	-6766
▁spite	-6767
▁destination	-6768
▁obser	-6769
inth	-6770
▁infinite	-6771
▁hesitated	-6772
▁reck	-6773
▁nerves	-6774
▁creator	-6775
gue	-6776
▁shots	-6777
▁ton	-6778
▁regul	-6779
▁chicken	-6780
▁sixt	-6781
▁displayed	-6782
▁maxim	-6783
▁underw	-6784
▁reception	-6785
ogenic	-6786
▁stern	-6787
▁fierce	-6788
▁pac	-6789
▁opens	-6790
▁clenched	-6791
▁rational	-6792
▁fest	-6793
▁renew	-6794
iders	-6795
▁worthy	-6796
▁ultimate	-6797
▁mechanisms	-6798
▁racing	-6799
▁destiny	-6800
ba	-6801
apes	-6802
▁storage	-6803
▁whist	-6804
▁abuse	-6805
▁biological	-6806
riff	-6807
isy	-6808
oot	-6809
▁crossing	-6810
▁stag	-6811
▁abruptly	-6812
udes	-6813
▁attrib	-6814
▁germany	-6815
▁gesture	-6816
▁alle	-6817
▁magazine	-6818
▁outf	-6819
▁bleeding	-6820
▁demanded	-6821
▁dyl	-6822
uding	-6823
▁alongside	-6824
▁bom	-6825
▁forming	-6826
▁angle	-6827
▁eleven	-6828
▁vig	-6829
▁principle	-6830
ruption	-6831
▁overwhelming	-6832
▁defeat	-6833
▁consp	-6834
▁twins	-6835
iy	-6836
▁mighty	-6837
▁whilst	-6838
▁federal	-6839
▁goods	-6840
▁county	-6841
▁thighs	-6842
▁gav	-6843
▁rome	-6844
▁accompanied	-6845
▁jerked	-6846
▁follows	-6847
▁glancing	-6848
theless	-6849
▁sank	-6850
▁consult	-6851
▁trembling	-6852
▁apple	-6853
▁materials	-6854
▁nevertheless	-6855
▁transition	-6856
kered	-6857
▁louder	-6858
▁rushing	-6859
▁stolen	-6860
▁beck	-6861
▁groaned	-6862
▁patience	-6863
▁stained	-6864
▁baseball	-6865
▁buff	-6866
▁plas	-6867
▁implement	-6868
▁liz	-6869
▁prem	-6870
▁cod	-6871
▁hip	-6872
▁pod	-6873
▁sore	-6874
▁danced	-6875
ensed	-6876
▁dwar	-6877
▁laboratory	-6878
▁purse	-6879
▁ridiculous	-6880
▁wars	-6881
▁hatred	-6882
amental	-6883
▁attempting	-6884
▁sadness	-6885
▁excess	-6886
itated	-6887
▁pistol	-6888
▁funeral	-6889
ih	-6890
▁upd	-6891
▁bits	-6892
▁metastasis	-6893
▁goals	-6894
▁shy	-6895
▁incor	-6896
▁resulted	-6897
▁processes	-6898
brew	-6899
▁occasional	-6900
▁sque	-6901
▁boston	-6902
▁fled	-6903
▁negot	-6904
▁ov	-6905
▁lords	-6906
▁findings	-6907
▁pulse	-6908
▁elimin	-6909
▁messen	-6910
ella	-6911
▁latter	-6912
▁pastor	-6913
▁gym	-6914
▁kil	-6915
▁edges	-6916
▁practical	-6917
▁engaged	-6918
▁insult	-6919
▁accomplish	-6920
▁largest	-6921
▁dor	-6922
▁faithful	-6923
▁inhab	-6924
▁european	-6925
bre	-6926
▁mankind	-6927
aints	-6928
▁pockets	-6929
▁simult	-6930
▁mentally	-6931
▁mistakes	-6932
zer	-6933
▁xen	-6934
ufact	-6935
▁verses	-6936
▁indicate	-6937
▁extern	-6938
▁categ	-6939
▁toes	-6940
▁writer	-6941
▁ein	-6942
▁mane	-6943
▁songs	-6944
▁politics	-6945
▁logic	-6946
▁pir	-6947
▁resistant	-6948
▁crawled	-6949
▁principles	-6950
going	-6951
▁greek	-6952
▁essence	-6953
▁machines	-6954
▁phenom	-6955
▁practices	-6956
▁functions	-6957
▁phy	-6958
asses	-6959
▁deaths	-6960
apse	-6961
▁digging	-6962
▁delicate	-6963
▁ade	-6964
▁error	-6965
rison	-6966
▁collabor	-6967
▁retreat	-6968
sa	-6969
▁julia	-6970
▁manufact	-6971
▁acknowled	-6972
▁brut	-6973
▁adop	-6974
▁projects	-6975
▁joint	-6976
▁sources	-6977
▁division	-6978
▁insurance	-6979
▁sensitivity	-6980
▁sid	-6981
▁kal	-6982
▁sorrow	-6983
▁ald	-6984
ja	-6985
gery	-6986
▁bowed	-6987
olas	-6988
▁intellectual	-6989
▁palms	-6990
▁oxy	-6991
▁flaw	-6992
▁rebecca	-6993
▁administration	-6994
▁canada	-6995
▁grounds	-6996
umes	-6997
mans	-6998
▁pip	-6999
▁cats	-7000
▁cute	-7001
▁laying	-7002
▁competition	-7003
▁arab	-7004
▁punch	-7005
▁sites	-7006
▁repeat	-7007
▁deadly	-7008
▁cleaned	-7009
▁sexy	-7010
▁receptor	-7011
▁satisfaction	-7012
▁boo	-7013
▁flee	-7014
▁ought	-7015
▁clue	-7016
▁crap	-7017
aimed	-7018
▁coach	-7019
▁schedule	-7020
▁positions	-7021
opes	-7022
▁biom	-7023
▁darwin	-7024
▁corners	-7025
▁revenge	-7026
▁illusion	-7027
▁objective	-7028
▁heavens	-7029
▁strict	-7030
▁hab	-7031
▁deli	-7032
▁bold	-7033
▁haired	-7034
▁explosion	-7035
▁difficulty	-7036
most	-7037
▁scot	-7038
▁cruel	-7039
▁flashing	-7040
mpt	-7041
▁pitch	-7042
▁print	-7043
▁praying	-7044
▁witnessed	-7045
▁bearing	-7046
ooped	-7047
▁marie	-7048
▁daddy	-7049
aker	-7050
▁hyd	-7051
▁pounds	-7052
▁territory	-7053
▁metastatic	-7054
▁tape	-7055
▁underground	-7056
▁raven	-7057
▁visiting	-7058
▁computers	-7059
▁leadership	-7060
▁continu	-7061
▁cultural	-7062
▁score	-7063
▁contrary	-7064
▁meetings	-7065
▁demonstrate	-7066
▁oak	-7067
▁profile	-7068
▁refuse	-7069
▁approx	-7070
▁pathways	-7071
bes	-7072
▁outs	-7073
asha	-7074
▁companions	-7075
▁steal	-7076
▁jackson	-7077
▁ic	-7078
isation	-7079
▁damned	-7080
▁fishing	-7081
impse	-7082
▁carcin	-7083
▁trigger	-7084
▁asp	-7085
▁glimpse	-7086
▁bund	-7087
▁abraham	-7088
▁vic	-7089
▁survey	-7090
▁distracted	-7091
▁ng	-7092
▁puff	-7093
▁glared	-7094
▁happily	-7095
▁swimming	-7096
▁shattered	-7097
▁description	-7098
▁trev	-7099
▁condem	-7100
▁neighbors	-7101
▁seth	-7102
▁unnecess	-7103
▁echoed	-7104
▁examine	-7105
iency	-7106
ishes	-7107
▁capture	-7108
▁ideal	-7109
▁toilet	-7110
▁remo	-7111
▁sacred	-7112
▁readers	-7113
▁commission	-7114
▁acknowledge	-7115
▁mutation	-7116
▁lawyer	-7117
▁priests	-7118
▁strongly	-7119
iley	-7120
▁detected	-7121
▁purposes	-7122
▁conj	-7123
▁vs	-7124
▁penis	-7125
▁trash	-7126
▁achieved	-7127
▁crept	-7128
▁mobile	-7129
acious	-7130
eem	-7131
▁index	-7132
bal	-7133
▁flut	-7134
▁wield	-7135
▁tapped	-7136
▁backpack	-7137
▁gly	-7138
▁lucas	-7139
▁lect	-7140
▁holiday	-7141
rep	-7142
▁refuge	-7143
▁scramb	-7144
▁accounts	-7145
sey	-7146
estic	-7147
▁steam	-7148
▁client	-7149
▁steep	-7150
▁grat	-7151
▁plasma	-7152
▁barrier	-7153
▁heres	-7154
▁intensity	-7155
▁vessel	-7156
▁fancy	-7157
▁todd	-7158
▁monday	-7159
▁meanwhile	-7160
▁containing	-7161
▁dict	-7162
▁jung	-7163
▁fortune	-7164
▁muslims	-7165
▁mg	-7166
▁coc	-7167
▁lon	-7168
▁files	-7169
▁greatly	-7170
rogen	-7171
uten	-7172
▁corp	-7173
▁portal	-7174
▁guided	-7175
▁item	-7176
▁session	-7177
▁targeting	-7178
▁earned	-7179
▁sheriff	-7180
▁subjects	-7181
▁mini	-7182
▁repeatedly	-7183
▁root	-7184
▁beam	-7185
▁mah	-7186
▁creep	-7187
▁sie	-7188
herent	-7189
▁miracle	-7190
▁obtained	-7191
▁temporary	-7192
▁dose	-7193
▁economy	-7194
▁aggressive	-7195
▁substant	-7196
▁wagon	-7197
▁edward	-7198
▁accum	-7199
▁committ	-7200
▁sanct	-7201
▁aspects	-7202
▁shiny	-7203
atherine	-7204
ether	-7205
▁dere	-7206
▁illness	-7207
▁fond	-7208
▁lawn	-7209
▁chic	-7210
▁plates	-7211
▁flex	-7212
▁ripp	-7213
▁assays	-7214
▁mainly	-7215
▁monitor	-7216
▁assistance	-7217
▁fel	-7218
▁magg	-7219
▁descend	-7220
▁standards	-7221
▁persu	-7222
▁slaves	-7223
▁banks	-7224
▁waving	-7225
▁covenant	-7226
vet	-7227
▁squad	-7228
▁opportunities	-7229
andra	-7230
▁referred	-7231
▁fi	-7232
▁awak	-7233
▁dana	-7234
▁toy	-7235
▁sept	-7236
▁loun	-7237
▁motioned	-7238
▁generations	-7239
ran	-7240
▁gw	-7241
▁dies	-7242
▁director	-7243
▁hypot	-7244
▁bin	-7245
▁resurre	-7246
▁ruth	-7247
▁conserv	-7248
▁feeding	-7249
▁spear	-7250
▁torment	-7251
osal	-7252
▁rna	-7253
▁crowded	-7254
▁twin	-7255
▁robe	-7256
▁glare	-7257
▁critic	-7258
▁helpless	-7259
▁jumping	-7260
▁convention	-7261
▁evident	-7262
▁landscape	-7263
osh	-7264
▁prophets	-7265
▁suppress	-7266
▁emper	-7267
▁sale	-7268
▁galax	-7269
▁blowing	-7270
agues	-7271
▁downward	-7272
▁exciting	-7273
▁recalled	-7274
▁existing	-7275
▁nasty	-7276
▁dragging	-7277
▁kevin	-7278
▁vital	-7279
▁resulting	-7280
▁arrog	-7281
▁plays	-7282
▁beasts	-7283
▁screwing	-7284
▁zach	-7285
▁throb	-7286
▁afterwards	-7287
▁plot	-7288
▁reasonable	-7289
▁slim	-7290
▁permanent	-7291
▁brid	-7292
▁striking	-7293
▁fires	-7294
▁channel	-7295
▁interior	-7296
▁efficient	-7297
▁garb	-7298
▁cavern	-7299
▁veins	-7300
▁complicated	-7301
▁april	-7302
▁lobby	-7303
▁jol	-7304
▁clients	-7305
icop	-7306
▁monit	-7307
▁native	-7308
▁muttered	-7309
▁quit	-7310
▁harvest	-7311
chant	-7312
▁obed	-7313
▁rowen	-7314
▁lapt	-7315
▁mild	-7316
▁bottles	-7317
▁sip	-7318
▁quran	-7319
ourse	-7320
rim	-7321
▁despair	-7322
▁prayers	-7323
▁bust	-7324
▁poll	-7325
▁avoided	-7326
▁matched	-7327
▁violet	-7328
▁conversations	-7329
▁irrit	-7330
▁philosophy	-7331
▁leapt	-7332
▁resear	-7333
▁incredibly	-7334
rin	-7335
▁solar	-7336
▁patch	-7337
rical	-7338
▁illegal	-7339
▁spreading	-7340
▁shorts	-7341
▁external	-7342
▁catholic	-7343
▁md	-7344
▁mathem	-7345
▁reputation	-7346
▁zero	-7347
▁abund	-7348
▁observe	-7349
▁promises	-7350
▁tin	-7351
▁cage	-7352
▁sticky	-7353
▁paris	-7354
▁advert	-7355
hand	-7356
▁hut	-7357
▁invent	-7358
▁fortunately	-7359
▁bore	-7360
▁sequencing	-7361
▁consc	-7362
▁insane	-7363
▁exploded	-7364
▁carved	-7365
▁regist	-7366
▁suggesting	-7367
illa	-7368
▁shove	-7369
▁oxygen	-7370
▁lieuten	-7371
▁pity	-7372
▁companion	-7373
▁muse	-7374
▁procl	-7375
▁monsters	-7376
▁serum	-7377
▁cloak	-7378
▁farther	-7379
▁impat	-7380
▁creative	-7381
▁historical	-7382
ffin	-7383
▁anne	-7384
▁ranch	-7385
ologies	-7386
▁healed	-7387
▁simpl	-7388
▁dating	-7389
▁devast	-7390
▁countless	-7391
▁divers	-7392
▁concerns	-7393
▁planets	-7394
▁deserved	-7395
▁shudd	-7396
▁lately	-7397
▁adjusted	-7398
▁knelt	-7399
▁determination	-7400
▁depression	-7401
▁flowed	-7402
othy	-7403
▁casey	-7404
▁dynam	-7405
zie	-7406
▁seren	-7407
▁bills	-7408
▁crisis	-7409
▁bastard	-7410
taining	-7411
▁gul	-7412
▁jet	-7413
▁dads	-7414
▁household	-7415
nam	-7416
▁unfold	-7417
▁han	-7418
▁yelling	-7419
▁authorities	-7420
▁unbel	-7421
▁electricity	-7422
▁descended	-7423
▁repent	-7424
alm	-7425
▁winning	-7426
▁approval	-7427
▁eyebrows	-7428
▁tyl	-7429
▁believes	-7430
▁upward	-7431
wed	-7432
▁ty	-7433
▁ware	-7434
▁agric	-7435
▁hyper	-7436
arn	-7437
▁league	-7438
▁isolated	-7439
▁froze	-7440
▁eyel	-7441
▁recorded	-7442
▁importantly	-7443
▁roots	-7444
▁originally	-7445
▁spur	-7446
▁consumed	-7447
kers	-7448
▁overt	-7449
▁backward	-7450
tery	-7451
▁ampl	-7452
▁navy	-7453
▁arth	-7454
▁environmental	-7455
but	-7456
▁jin	-7457
▁kore	-7458
▁sheer	-7459
▁suck	-7460
▁challenges	-7461
unting	-7462
▁tense	-7463
▁alar	-7464
▁june	-7465
ugging	-7466
oration	-7467
▁romantic	-7468
▁boring	-7469
▁kicking	-7470
▁pear	-7471
▁hits	-7472
idding	-7473
▁surprisingly	-7474
enth	-7475
▁surve	-7476
▁mortal	-7477
▁russia	-7478
▁improved	-7479
▁slipping	-7480
▁crashed	-7481
▁yourselves	-7482
itar	-7483
▁disting	-7484
▁wolves	-7485
▁cole	-7486
▁fundamental	-7487
▁prey	-7488
▁imper	-7489
▁lace	-7490
▁talent	-7491
▁analyzed	-7492
▁caring	-7493
▁slapped	-7494
▁functional	-7495
▁ramp	-7496
▁guidance	-7497
▁evaluated	-7498
▁purchased	-7499
▁fifth	-7500
▁degrees	-7501
▁gorgeous	-7502
respond	-7503
rils	-7504
▁wishes	-7505
▁jimmy	-7506
▁cheese	-7507
▁fascin	-7508
▁lover	-7509
▁idiot	-7510
▁ay	-7511
ancer	-7512
▁nathan	-7513
▁aircraft	-7514
▁delivery	-7515
▁sidewalk	-7516
▁unse	-7517
▁cough	-7518
▁babies	-7519
▁brains	-7520
▁supern	-7521
▁offers	-7522
▁digital	-7523
▁rus	-7524
▁euch	-7525
▁multi	-7526
▁elbow	-7527
rehe	-7528
▁epit	-7529
▁emerging	-7530
lets	-7531
xture	-7532
umble	-7533
▁twisting	-7534
▁vulnerable	-7535
▁effectively	-7536
▁matching	-7537
▁treasure	-7538
▁ny	-7539
▁mcc	-7540
▁australia	-7541
▁operations	-7542
▁dylan	-7543
▁dre	-7544
▁tribe	-7545
▁transcription	-7546
▁alb	-7547
ouncing	-7548
▁selection	-7549
▁governments	-7550
▁suspicious	-7551
▁buying	-7552
berg	-7553
▁enhanced	-7554
▁progn	-7555
▁correspond	-7556
van	-7557
▁stephen	-7558
▁suicide	-7559
▁intend	-7560
▁rhythm	-7561
▁noble	-7562
ria	-7563
▁void	-7564
▁tinted	-7565
▁neut	-7566
▁surge	-7567
arded	-7568
▁duties	-7569
▁responses	-7570
▁strangers	-7571
▁fairy	-7572
▁beloved	-7573
▁semi	-7574
▁clever	-7575
xp	-7576
rem	-7577
▁blo	-7578
ician	-7579
inkled	-7580
▁doctr	-7581
▁stuffed	-7582
▁pron	-7583
▁aston	-7584
▁perpet	-7585
▁irr	-7586
▁freely	-7587
▁drawer	-7588
▁goodness	-7589
▁eb	-7590
▁mm	-7591
▁christianity	-7592
▁universal	-7593
▁blades	-7594
ola	-7595
inge	-7596
zens	-7597
▁pharm	-7598
▁swinging	-7599
▁nervously	-7600
▁bolt	-7601
▁ine	-7602
▁synt	-7603
▁concerning	-7604
ota	-7605
▁keen	-7606
▁fiery	-7607
▁caleb	-7608
▁claire	-7609
rode	-7610
▁lymph	-7611
uting	-7612
icit	-7613
▁supreme	-7614
▁efficacy	-7615
rum	-7616
utive	-7617
▁sadly	-7618
▁electronic	-7619
▁pretending	-7620
▁wealthy	-7621
▁disaster	-7622
▁humor	-7623
▁immense	-7624
▁wizard	-7625
▁amazed	-7626
ipher	-7627
pi	-7628
▁rank	-7629
▁proceeded	-7630
▁accurate	-7631
▁visitors	-7632
▁eu	-7633
▁corrupt	-7634
unks	-7635
▁ratt	-7636
▁ignorance	-7637
▁straw	-7638
▁privile	-7639
▁corps	-7640
▁dagger	-7641
▁aaron	-7642
hole	-7643
▁hired	-7644
osom	-7645
▁depending	-7646
scl	-7647
▁bry	-7648
▁agony	-7649
▁conclusions	-7650
▁zomb	-7651
▁sincere	-7652
▁surrender	-7653
▁detection	-7654
▁ster	-7655
▁murdered	-7656
▁breaths	-7657
▁frustrated	-7658
▁properties	-7659
▁rows	-7660
▁feast	-7661
▁sector	-7662
▁initially	-7663
▁protecting	-7664
▁winds	-7665
▁emphas	-7666
▁junior	-7667
▁breaks	-7668
▁topic	-7669
▁joining	-7670
▁facility	-7671
▁kay	-7672
▁bullets	-7673
▁helicop	-7674
angs	-7675
▁lounge	-7676
rific	-7677
▁injury	-7678
▁malign	-7679
▁returns	-7680
▁attended	-7681
▁emphasis	-7682
▁nails	-7683
▁communicate	-7684
works	-7685
▁laptop	-7686
▁envelope	-7687
▁promising	-7688
▁hann	-7689
▁includes	-7690
▁zo	-7691
aneous	-7692
▁egfr	-7693
▁classroom	-7694
▁uh	-7695
ords	-7696
▁heavenly	-7697
▁differently	-7698
▁radiation	-7699
▁sustain	-7700
▁crushed	-7701
she	-7702
▁dorm	-7703
aware	-7704
ograft	-7705
▁seeds	-7706
▁african	-7707
▁examples	-7708
▁nam	-7709
▁pete	-7710
▁refe	-7711
▁squir	-7712
▁concentrate	-7713
▁tightened	-7714
▁downt	-7715
bell	-7716
▁ours	-7717
ictions	-7718
▁divided	-7719
▁surgery	-7720
ubble	-7721
▁rip	-7722
▁nons	-7723
▁jewel	-7724
▁sally	-7725
▁hebrew	-7726
▁damaged	-7727
▁rings	-7728
▁views	-7729
▁recognition	-7730
▁dollar	-7731
▁colonel	-7732
▁tn	-7733
▁layer	-7734
▁mim	-7735
▁nipp	-7736
idently	-7737
▁introduction	-7738
urd	-7739
▁revol	-7740
▁ts	-7741
▁germ	-7742
▁hammer	-7743
▁avoiding	-7744
▁dozens	-7745
▁prompt	-7746
▁planted	-7747
▁prisoners	-7748
mony	-7749
▁fib	-7750
▁appe	-7751
▁maid	-7752
▁shelf	-7753
▁acquired	-7754
▁agricult	-7755
▁halt	-7756
▁http	-7757
▁nost	-7758
▁cann	-7759
▁jonathan	-7760
▁booth	-7761
▁iran	-7762
▁eased	-7763
▁fem	-7764
▁overe	-7765
▁mack	-7766
▁moist	-7767
▁eighteen	-7768
▁ctz	-7769
▁laura	-7770
▁apoptosis	-7771
▁assistant	-7772
▁obliv	-7773
agan	-7774
▁anch	-7775
uddled	-7776
▁biomark	-7777
▁substance	-7778
ci	-7779
▁medium	-7780
▁swiftly	-7781
▁anticipation	-7782
▁sandy	-7783
▁bushes	-7784
▁desired	-7785
umber	-7786
▁crim	-7787
▁encl	-7788
▁isaac	-7789
▁protective	-7790
▁ladder	-7791
ailed	-7792
ordan	-7793
▁click	-7794
▁cries	-7795
▁programs	-7796
▁intentions	-7797
bod	-7798
▁cogn	-7799
▁encouraged	-7800
▁disappointment	-7801
beat	-7802
▁sang	-7803
▁nu	-7804
▁vest	-7805
▁andre	-7806
▁depths	-7807
▁drum	-7808
▁decreased	-7809
▁illust	-7810
▁profit	-7811
▁accent	-7812
▁neckl	-7813
▁navig	-7814
▁domain	-7815
▁congreg	-7816
▁adopt	-7817
vy	-7818
ptions	-7819
▁thirst	-7820
▁xenograft	-7821
▁eleg	-7822
▁roger	-7823
▁cottage	-7824
hew	-7825
oen	-7826
▁texas	-7827
▁possession	-7828
▁spat	-7829
▁explo	-7830
ostic	-7831
▁stored	-7832
▁cake	-7833
▁replace	-7834
▁behaviour	-7835
▁instructed	-7836
▁pouring	-7837
▁margaret	-7838
▁spots	-7839
▁leaf	-7840
▁thanked	-7841
hal	-7842
▁aqu	-7843
▁hollow	-7844
asions	-7845
▁soaked	-7846
▁perception	-7847
▁rav	-7848
▁pissed	-7849
▁units	-7850
▁beaten	-7851
otype	-7852
▁comments	-7853
▁indicates	-7854
▁unsure	-7855
▁churches	-7856
▁attor	-7857
▁pc	-7858
▁disbelief	-7859
▁suggests	-7860
▁inevitable	-7861
▁..	-7862
ieties	-7863
▁consistent	-7864
▁tob	-7865
▁artific	-7866
▁automatically	-7867
▁paran	-7868
▁demands	-7869
▁psychic	-7870
▁lion	-7871
▁georg	-7872
▁necessarily	-7873
▁firing	-7874
▁sum	-7875
▁bron	-7876
▁males	-7877
rifying	-7878
▁switched	-7879
▁mast	-7880
▁charges	-7881
▁arc	-7882
▁linda	-7883
▁hypothes	-7884
▁documents	-7885
▁uk	-7886
▁sideways	-7887
▁adapt	-7888
▁telephone	-7889
▁floated	-7890
▁launched	-7891
▁significance	-7892
no	-7893
arts	-7894
▁ath	-7895
▁pic	-7896
▁clasp	-7897
▁suits	-7898
▁stack	-7899
▁lieutenant	-7900
▁unnecessary	-7901
ela	-7902
▁roar	-7903
▁foods	-7904
▁proven	-7905
▁taller	-7906
▁accommod	-7907
▁liver	-7908
▁sixty	-7909
▁structures	-7910
▁jessica	-7911
▁sean	-7912
▁dishes	-7913
▁annoyed	-7914
▁ruin	-7915
▁bend	-7916
▁wishing	-7917
▁communities	-7918
▁reader	-7919
▁blocking	-7920
add	-7921
▁lam	-7922
▁para	-7923
▁nerve	-7924
▁snar	-7925
▁dimin	-7926
▁liam	-7927
heit	-7928
▁wow	-7929
ensions	-7930
▁affairs	-7931
rily	-7932
▁pine	-7933
▁tissues	-7934
▁announce	-7935
iat	-7936
▁blown	-7937
▁writers	-7938
▁gestured	-7939
lation	-7940
reated	-7941
▁logical	-7942
▁customer	-7943
▁explaining	-7944
itty	-7945
▁deaf	-7946
▁muslim	-7947
▁attracted	-7948
▁scow	-7949
▁intrig	-7950
▁miserable	-7951
▁vote	-7952
▁privacy	-7953
▁solve	-7954
▁tommy	-7955
▁artist	-7956
▁arriving	-7957
▁yah	-7958
▁rack	-7959
▁rates	-7960
▁stake	-7961
▁candle	-7962
▁tyr	-7963
▁burnt	-7964
▁secretary	-7965
▁	-7966
e	-7967
t	-7968
a	-7969
o	-7970
i	-7971
n	-7972
s	-7973
h	-7974
r	-7975
d	-7976
l	-7977
u	-7978
c	-7979
m	-7980
w	-7981
g	-7982
f	-7983
y	-7984
p	-7985
b	-7986
.	-7987
,	-7988
k	-7989
v	-7990
j	-7991
x	-7992
z	-7993
q	-7994
)	-7995
